{
  "version": "1.0",
  "truncation": null,
  "padding": null,
  "added_tokens": [
    {
      "id": 0,
      "content": "<pad>",
      "single_word": false,
      "lstrip": false,
      "rstrip": false,
      "normalized": false,
      "special": true
    },
    {
      "id": 1,
      "content": "<s>",
      "single_word": false,
      "lstrip": false,
      "rstrip": false,
      "normalized": false,
      "special": true
    },
    {
      "id": 2,
      "content": "</s>",
      "single_word": false,
      "lstrip": false,
      "rstrip": false,
      "normalized": false,
      "special": true
    },
    {
      "id": 3,
      "content": "<mask>",
      "single_word": false,
      "lstrip": false,
      "rstrip": false,
      "normalized": false,
      "special": true
    },
    {
      "id": 4,
      "content": "<cls>",
      "single_word": false,
      "lstrip": false,
      "rstrip": false,
      "normalized": false,
      "special": true
    },
    {
      "id": 5,
      "content": "<unk>",
      "single_word": false,
      "lstrip": false,
      "rstrip": false,
      "normalized": false,
      "special": true
    },
    {
      "id": 6,
      "content": "<sys>",
      "single_word": false,
      "lstrip": false,
      "rstrip": false,
      "normalized": false,
      "special": true
    },
    {
      "id": 7,
      "content": "</sys>",
      "single_word": false,
      "lstrip": false,
      "rstrip": false,
      "normalized": false,
      "special": true
    },
    {
      "id": 8,
      "content": "<ctx>",
      "single_word": false,
      "lstrip": false,
      "rstrip": false,
      "normalized": false,
      "special": true
    },
    {
      "id": 9,
      "content": "</ctx>",
      "single_word": false,
      "lstrip": false,
      "rstrip": false,
      "normalized": false,
      "special": true
    },
    {
      "id": 10,
      "content": "<iauser>",
      "single_word": false,
      "lstrip": false,
      "rstrip": false,
      "normalized": false,
      "special": true
    },
    {
      "id": 11,
      "content": "</iauser>",
      "single_word": false,
      "lstrip": false,
      "rstrip": false,
      "normalized": false,
      "special": true
    },
    {
      "id": 12,
      "content": "<iaagent>",
      "single_word": false,
      "lstrip": false,
      "rstrip": false,
      "normalized": false,
      "special": true
    },
    {
      "id": 13,
      "content": "</iaagent>",
      "single_word": false,
      "lstrip": false,
      "rstrip": false,
      "normalized": false,
      "special": true
    },
    {
      "id": 14,
      "content": "<memory>",
      "single_word": false,
      "lstrip": false,
      "rstrip": false,
      "normalized": false,
      "special": true
    }
  ],
  "normalizer": {
    "type": "Sequence",
    "normalizers": [
      {
        "type": "Replace",
        "pattern": {
          "String": "\n(.)\n"
        },
        "content": "\n"
      },
      {
        "type": "Replace",
        "pattern": {
          "String": "\\n[\\n]+"
        },
        "content": "\n\n"
      },
      {
        "type": "NFKC"
      }
    ]
  },
  "pre_tokenizer": {
    "type": "Whitespace"
  },
  "post_processor": null,
  "decoder": {
    "type": "BPEDecoder",
    "suffix": "Ġ"
  },
  "model": {
    "type": "BPE",
    "dropout": null,
    "unk_token": null,
    "continuing_subword_prefix": null,
    "end_of_word_suffix": null,
    "fuse_unk": false,
    "byte_fallback": false,
    "ignore_merges": false,
    "vocab": {
      "<pad>": 0,
      "<s>": 1,
      "</s>": 2,
      "<mask>": 3,
      "<cls>": 4,
      "<unk>": 5,
      "<sys>": 6,
      "</sys>": 7,
      "<ctx>": 8,
      "</ctx>": 9,
      "<iauser>": 10,
      "</iauser>": 11,
      "<iaagent>": 12,
      "</iaagent>": 13,
      "<memory>": 14,
      "\u0000": 15,
      "\u0001": 16,
      "\u0002": 17,
      "\u0003": 18,
      "\u0004": 19,
      "\u0005": 20,
      "\u0006": 21,
      "\u0007": 22,
      "\b": 23,
      "\t": 24,
      "\n": 25,
      "\u000b": 26,
      "\f": 27,
      "\u000e": 28,
      "\u000f": 29,
      "\u0010": 30,
      "\u0011": 31,
      "\u0012": 32,
      "\u0013": 33,
      "\u0014": 34,
      "\u0015": 35,
      "\u0016": 36,
      "\u0017": 37,
      "\u0018": 38,
      "\u0019": 39,
      "\u001a": 40,
      "\u001b": 41,
      "\u001c": 42,
      "\u001d": 43,
      "\u001e": 44,
      "\u001f": 45,
      "!": 46,
      "\"": 47,
      "#": 48,
      "$": 49,
      "%": 50,
      "&": 51,
      "'": 52,
      "(": 53,
      ")": 54,
      "*": 55,
      "+": 56,
      ",": 57,
      "-": 58,
      ".": 59,
      "/": 60,
      "0": 61,
      "1": 62,
      "2": 63,
      "3": 64,
      "4": 65,
      "5": 66,
      "6": 67,
      "7": 68,
      "8": 69,
      "9": 70,
      ":": 71,
      ";": 72,
      "<": 73,
      "=": 74,
      ">": 75,
      "?": 76,
      "@": 77,
      "A": 78,
      "B": 79,
      "C": 80,
      "D": 81,
      "E": 82,
      "F": 83,
      "G": 84,
      "H": 85,
      "I": 86,
      "J": 87,
      "K": 88,
      "L": 89,
      "M": 90,
      "N": 91,
      "O": 92,
      "P": 93,
      "Q": 94,
      "R": 95,
      "S": 96,
      "T": 97,
      "U": 98,
      "V": 99,
      "W": 100,
      "X": 101,
      "Y": 102,
      "Z": 103,
      "[": 104,
      "\\": 105,
      "]": 106,
      "^": 107,
      "_": 108,
      "`": 109,
      "a": 110,
      "b": 111,
      "c": 112,
      "d": 113,
      "e": 114,
      "f": 115,
      "g": 116,
      "h": 117,
      "i": 118,
      "j": 119,
      "k": 120,
      "l": 121,
      "m": 122,
      "n": 123,
      "o": 124,
      "p": 125,
      "q": 126,
      "r": 127,
      "s": 128,
      "t": 129,
      "u": 130,
      "v": 131,
      "w": 132,
      "x": 133,
      "y": 134,
      "z": 135,
      "{": 136,
      "|": 137,
      "}": 138,
      "~": 139,
      "": 140,
      "": 141,
      "": 142,
      "": 143,
      "": 144,
      "": 145,
      "": 146,
      "": 147,
      "": 148,
      "": 149,
      "": 150,
      "": 151,
      "": 152,
      "": 153,
      "": 154,
      "": 155,
      "": 156,
      "": 157,
      "": 158,
      "": 159,
      "": 160,
      "": 161,
      "": 162,
      "": 163,
      "": 164,
      "": 165,
      "": 166,
      "": 167,
      "": 168,
      "": 169,
      "": 170,
      "": 171,
      "": 172,
      "¡": 173,
      "¢": 174,
      "£": 175,
      "¤": 176,
      "¥": 177,
      "¦": 178,
      "§": 179,
      "©": 180,
      "«": 181,
      "¬": 182,
      "­": 183,
      "®": 184,
      "°": 185,
      "±": 186,
      "¶": 187,
      "·": 188,
      "»": 189,
      "¿": 190,
      "À": 191,
      "Á": 192,
      "Â": 193,
      "Ã": 194,
      "Ä": 195,
      "Å": 196,
      "Æ": 197,
      "Ç": 198,
      "È": 199,
      "É": 200,
      "Ê": 201,
      "Ë": 202,
      "Ì": 203,
      "Í": 204,
      "Î": 205,
      "Ï": 206,
      "Ð": 207,
      "Ñ": 208,
      "Ò": 209,
      "Ó": 210,
      "Ô": 211,
      "Õ": 212,
      "Ö": 213,
      "×": 214,
      "Ø": 215,
      "Ù": 216,
      "Ú": 217,
      "Û": 218,
      "Ü": 219,
      "Ý": 220,
      "Þ": 221,
      "ß": 222,
      "à": 223,
      "á": 224,
      "â": 225,
      "ã": 226,
      "ä": 227,
      "å": 228,
      "æ": 229,
      "ç": 230,
      "è": 231,
      "é": 232,
      "ê": 233,
      "ë": 234,
      "ì": 235,
      "í": 236,
      "î": 237,
      "ï": 238,
      "ð": 239,
      "ñ": 240,
      "ò": 241,
      "ó": 242,
      "ô": 243,
      "õ": 244,
      "ö": 245,
      "÷": 246,
      "ø": 247,
      "ù": 248,
      "ú": 249,
      "û": 250,
      "ü": 251,
      "ý": 252,
      "þ": 253,
      "ÿ": 254,
      "Ā": 255,
      "ā": 256,
      "Ă": 257,
      "ă": 258,
      "Ą": 259,
      "ą": 260,
      "Ć": 261,
      "ć": 262,
      "Ĉ": 263,
      "ĉ": 264,
      "Ċ": 265,
      "ċ": 266,
      "Č": 267,
      "č": 268,
      "Ď": 269,
      "ď": 270,
      "Đ": 271,
      "đ": 272,
      "Ē": 273,
      "ē": 274,
      "Ĕ": 275,
      "ĕ": 276,
      "Ė": 277,
      "ė": 278,
      "Ę": 279,
      "ę": 280,
      "Ě": 281,
      "ě": 282,
      "Ĝ": 283,
      "ĝ": 284,
      "Ğ": 285,
      "ğ": 286,
      "Ġ": 287,
      "ġ": 288,
      "Ģ": 289,
      "ģ": 290,
      "Ĥ": 291,
      "ĥ": 292,
      "Ħ": 293,
      "ħ": 294,
      "Ĩ": 295,
      "ĩ": 296,
      "Ī": 297,
      "ī": 298,
      "ĭ": 299,
      "Į": 300,
      "į": 301,
      "İ": 302,
      "ı": 303,
      "Ĵ": 304,
      "ĵ": 305,
      "Ķ": 306,
      "ķ": 307,
      "ĸ": 308,
      "Ĺ": 309,
      "ĺ": 310,
      "Ļ": 311,
      "ļ": 312,
      "Ľ": 313,
      "ľ": 314,
      "Ł": 315,
      "ł": 316,
      "Ń": 317,
      "ń": 318,
      "Ņ": 319,
      "ņ": 320,
      "Ň": 321,
      "ň": 322,
      "Ŋ": 323,
      "ŋ": 324,
      "Ō": 325,
      "ō": 326,
      "Ŏ": 327,
      "ŏ": 328,
      "Ő": 329,
      "ő": 330,
      "Œ": 331,
      "œ": 332,
      "Ŕ": 333,
      "ŕ": 334,
      "ŗ": 335,
      "Ř": 336,
      "ř": 337,
      "Ś": 338,
      "ś": 339,
      "Ŝ": 340,
      "ŝ": 341,
      "Ş": 342,
      "ş": 343,
      "Š": 344,
      "š": 345,
      "Ţ": 346,
      "ţ": 347,
      "Ť": 348,
      "ť": 349,
      "Ŧ": 350,
      "ŧ": 351,
      "ũ": 352,
      "Ū": 353,
      "ū": 354,
      "Ŭ": 355,
      "ŭ": 356,
      "Ů": 357,
      "ů": 358,
      "Ű": 359,
      "ű": 360,
      "Ų": 361,
      "ų": 362,
      "ŵ": 363,
      "Ŷ": 364,
      "ŷ": 365,
      "Ÿ": 366,
      "Ź": 367,
      "ź": 368,
      "Ż": 369,
      "ż": 370,
      "Ž": 371,
      "ž": 372,
      "Ɓ": 373,
      "Ƃ": 374,
      "Ƅ": 375,
      "ƅ": 376,
      "Ɔ": 377,
      "Ƈ": 378,
      "ƈ": 379,
      "Ɖ": 380,
      "Ɗ": 381,
      "Ƌ": 382,
      "Ǝ": 383,
      "Ə": 384,
      "Ɛ": 385,
      "Ƒ": 386,
      "ƒ": 387,
      "Ɠ": 388,
      "Ɣ": 389,
      "Ɨ": 390,
      "ƚ": 391,
      "ƛ": 392,
      "Ɯ": 393,
      "Ɲ": 394,
      "ƞ": 395,
      "Ɵ": 396,
      "Ơ": 397,
      "ơ": 398,
      "Ʃ": 399,
      "Ƭ": 400,
      "ƭ": 401,
      "Ʈ": 402,
      "Ư": 403,
      "ư": 404,
      "Ʊ": 405,
      "Ʋ": 406,
      "Ƴ": 407,
      "ƴ": 408,
      "Ƶ": 409,
      "ƶ": 410,
      "Ʒ": 411,
      "Ƹ": 412,
      "ƹ": 413,
      "ƿ": 414,
      "ǀ": 415,
      "ǁ": 416,
      "ǂ": 417,
      "ǃ": 418,
      "Ǎ": 419,
      "ǎ": 420,
      "Ǐ": 421,
      "ǐ": 422,
      "Ǒ": 423,
      "ǒ": 424,
      "ǔ": 425,
      "ǖ": 426,
      "ǘ": 427,
      "ǚ": 428,
      "ǜ": 429,
      "ǝ": 430,
      "ǣ": 431,
      "ǥ": 432,
      "ǧ": 433,
      "Ǫ": 434,
      "ǫ": 435,
      "ǭ": 436,
      "Ǯ": 437,
      "ǯ": 438,
      "ǰ": 439,
      "ǵ": 440,
      "Ƿ": 441,
      "ǹ": 442,
      "Ǻ": 443,
      "ǽ": 444,
      "ǿ": 445,
      "ȁ": 446,
      "ȅ": 447,
      "ȉ": 448,
      "ȍ": 449,
      "Ȏ": 450,
      "ȏ": 451,
      "ȕ": 452,
      "Ș": 453,
      "ș": 454,
      "Ț": 455,
      "ț": 456,
      "Ȝ": 457,
      "ȝ": 458,
      "ȟ": 459,
      "ȣ": 460,
      "ȥ": 461,
      "ȧ": 462,
      "ȩ": 463,
      "ȫ": 464,
      "ȯ": 465,
      "ȳ": 466,
      "ȵ": 467,
      "ȶ": 468,
      "Ȼ": 469,
      "ȼ": 470,
      "Ƚ": 471,
      "Ⱦ": 472,
      "Ƀ": 473,
      "Ʉ": 474,
      "ɐ": 475,
      "ɑ": 476,
      "ɒ": 477,
      "ɓ": 478,
      "ɔ": 479,
      "ɕ": 480,
      "ɖ": 481,
      "ɗ": 482,
      "ɘ": 483,
      "ə": 484,
      "ɚ": 485,
      "ɛ": 486,
      "ɜ": 487,
      "ɞ": 488,
      "ɟ": 489,
      "ɠ": 490,
      "ɡ": 491,
      "ɢ": 492,
      "ɣ": 493,
      "ɤ": 494,
      "ɥ": 495,
      "ɦ": 496,
      "ɧ": 497,
      "ɨ": 498,
      "ɩ": 499,
      "ɪ": 500,
      "ɫ": 501,
      "ɬ": 502,
      "ɭ": 503,
      "ɮ": 504,
      "ɯ": 505,
      "ɰ": 506,
      "ɱ": 507,
      "ɲ": 508,
      "ɳ": 509,
      "ɴ": 510,
      "ɵ": 511,
      "ɶ": 512,
      "ɷ": 513,
      "ɸ": 514,
      "ɹ": 515,
      "ɻ": 516,
      "ɼ": 517,
      "ɽ": 518,
      "ɾ": 519,
      "ʀ": 520,
      "ʁ": 521,
      "ʂ": 522,
      "ʃ": 523,
      "ʄ": 524,
      "ʅ": 525,
      "ʆ": 526,
      "ʇ": 527,
      "ʈ": 528,
      "ʉ": 529,
      "ʊ": 530,
      "ʋ": 531,
      "ʌ": 532,
      "ʍ": 533,
      "ʎ": 534,
      "ʏ": 535,
      "ʐ": 536,
      "ʑ": 537,
      "ʒ": 538,
      "ʔ": 539,
      "ʕ": 540,
      "ʖ": 541,
      "ʗ": 542,
      "ʘ": 543,
      "ʙ": 544,
      "ʜ": 545,
      "ʝ": 546,
      "ʟ": 547,
      "ʡ": 548,
      "ʢ": 549,
      "ʣ": 550,
      "ʤ": 551,
      "ʥ": 552,
      "ʦ": 553,
      "ʧ": 554,
      "ʮ": 555,
      "ʹ": 556,
      "ʺ": 557,
      "ʻ": 558,
      "ʼ": 559,
      "ʽ": 560,
      "ʾ": 561,
      "ʿ": 562,
      "ˀ": 563,
      "ˁ": 564,
      "˂": 565,
      "˃": 566,
      "˄": 567,
      "ˆ": 568,
      "ˇ": 569,
      "ˈ": 570,
      "ˉ": 571,
      "ˌ": 572,
      "ˍ": 573,
      "ː": 574,
      "ˑ": 575,
      "˔": 576,
      "˖": 577,
      "˗": 578,
      "˞": 579,
      "˟": 580,
      "˥": 581,
      "˦": 582,
      "˧": 583,
      "˨": 584,
      "˩": 585,
      "˭": 586,
      "˰": 587,
      "˽": 588,
      "̀": 589,
      "́": 590,
      "̂": 591,
      "̃": 592,
      "̄": 593,
      "̅": 594,
      "̆": 595,
      "̇": 596,
      "̈": 597,
      "̉": 598,
      "̊": 599,
      "̋": 600,
      "̌": 601,
      "̍": 602,
      "̏": 603,
      "̒": 604,
      "̓": 605,
      "̔": 606,
      "̕": 607,
      "̗": 608,
      "̚": 609,
      "̜": 610,
      "̝": 611,
      "̞": 612,
      "̟": 613,
      "̠": 614,
      "̡": 615,
      "̣": 616,
      "̤": 617,
      "̥": 618,
      "̦": 619,
      "̧": 620,
      "̨": 621,
      "̩": 622,
      "̪": 623,
      "̫": 624,
      "̬": 625,
      "̯": 626,
      "̰": 627,
      "̱": 628,
      "̲": 629,
      "̳": 630,
      "̴": 631,
      "̵": 632,
      "̶": 633,
      "̸": 634,
      "̹": 635,
      "̻": 636,
      "̽": 637,
      "̿": 638,
      "͂": 639,
      "͇": 640,
      "͘": 641,
      "͜": 642,
      "͝": 643,
      "͞": 644,
      "͡": 645,
      "ͣ": 646,
      "ͤ": 647,
      "ͦ": 648,
      "Ά": 649,
      "Έ": 650,
      "Ή": 651,
      "Ί": 652,
      "Ό": 653,
      "Ώ": 654,
      "ΐ": 655,
      "Α": 656,
      "Β": 657,
      "Γ": 658,
      "Δ": 659,
      "Ε": 660,
      "Ζ": 661,
      "Η": 662,
      "Θ": 663,
      "Ι": 664,
      "Κ": 665,
      "Λ": 666,
      "Μ": 667,
      "Ν": 668,
      "Ξ": 669,
      "Ο": 670,
      "Π": 671,
      "Ρ": 672,
      "Σ": 673,
      "Τ": 674,
      "Υ": 675,
      "Φ": 676,
      "Χ": 677,
      "Ψ": 678,
      "Ω": 679,
      "Ϊ": 680,
      "ά": 681,
      "έ": 682,
      "ή": 683,
      "ί": 684,
      "ΰ": 685,
      "α": 686,
      "β": 687,
      "γ": 688,
      "δ": 689,
      "ε": 690,
      "ζ": 691,
      "η": 692,
      "θ": 693,
      "ι": 694,
      "κ": 695,
      "λ": 696,
      "μ": 697,
      "ν": 698,
      "ξ": 699,
      "ο": 700,
      "π": 701,
      "ρ": 702,
      "ς": 703,
      "σ": 704,
      "τ": 705,
      "υ": 706,
      "φ": 707,
      "χ": 708,
      "ψ": 709,
      "ω": 710,
      "ϊ": 711,
      "ϋ": 712,
      "ό": 713,
      "ύ": 714,
      "ώ": 715,
      "ϗ": 716,
      "Ϝ": 717,
      "ϝ": 718,
      "Ϟ": 719,
      "ϟ": 720,
      "Ϣ": 721,
      "ϣ": 722,
      "Ϻ": 723,
      "Ͽ": 724,
      "Ё": 725,
      "Ђ": 726,
      "Ѓ": 727,
      "Є": 728,
      "Ѕ": 729,
      "І": 730,
      "Ї": 731,
      "Ј": 732,
      "Љ": 733,
      "Њ": 734,
      "Ћ": 735,
      "Ў": 736,
      "Џ": 737,
      "А": 738,
      "Б": 739,
      "В": 740,
      "Г": 741,
      "Д": 742,
      "Е": 743,
      "Ж": 744,
      "З": 745,
      "И": 746,
      "Й": 747,
      "К": 748,
      "Л": 749,
      "М": 750,
      "Н": 751,
      "О": 752,
      "П": 753,
      "Р": 754,
      "С": 755,
      "Т": 756,
      "У": 757,
      "Ф": 758,
      "Х": 759,
      "Ц": 760,
      "Ч": 761,
      "Ш": 762,
      "Щ": 763,
      "Ъ": 764,
      "Ы": 765,
      "Ь": 766,
      "Э": 767,
      "Ю": 768,
      "Я": 769,
      "а": 770,
      "б": 771,
      "в": 772,
      "г": 773,
      "д": 774,
      "е": 775,
      "ж": 776,
      "з": 777,
      "и": 778,
      "й": 779,
      "к": 780,
      "л": 781,
      "м": 782,
      "н": 783,
      "о": 784,
      "п": 785,
      "р": 786,
      "с": 787,
      "т": 788,
      "у": 789,
      "ф": 790,
      "х": 791,
      "ц": 792,
      "ч": 793,
      "ш": 794,
      "щ": 795,
      "ъ": 796,
      "ы": 797,
      "ь": 798,
      "э": 799,
      "ю": 800,
      "я": 801,
      "ё": 802,
      "ђ": 803,
      "ѓ": 804,
      "є": 805,
      "ѕ": 806,
      "і": 807,
      "ї": 808,
      "ј": 809,
      "љ": 810,
      "њ": 811,
      "ћ": 812,
      "ќ": 813,
      "ў": 814,
      "џ": 815,
      "ѡ": 816,
      "ѣ": 817,
      "ѧ": 818,
      "ѱ": 819,
      "Ѳ": 820,
      "ѳ": 821,
      "ѵ": 822,
      "҃": 823,
      "҉": 824,
      "Ґ": 825,
      "ґ": 826,
      "Ғ": 827,
      "ғ": 828,
      "ҕ": 829,
      "җ": 830,
      "Ҙ": 831,
      "ҙ": 832,
      "Қ": 833,
      "қ": 834,
      "Ҝ": 835,
      "ҝ": 836,
      "ҟ": 837,
      "Ҡ": 838,
      "ҡ": 839,
      "Ң": 840,
      "ң": 841,
      "Ҥ": 842,
      "ҥ": 843,
      "ҧ": 844,
      "Ҩ": 845,
      "ҩ": 846,
      "Ҫ": 847,
      "ҫ": 848,
      "Ҭ": 849,
      "ҭ": 850,
      "Ү": 851,
      "ү": 852,
      "Ұ": 853,
      "ұ": 854,
      "Ҳ": 855,
      "ҳ": 856,
      "Ҷ": 857,
      "ҷ": 858,
      "ҹ": 859,
      "Һ": 860,
      "һ": 861,
      "Ӏ": 862,
      "Ӄ": 863,
      "Ӈ": 864,
      "ӈ": 865,
      "Ӊ": 866,
      "ӊ": 867,
      "ӏ": 868,
      "ӑ": 869,
      "Ӓ": 870,
      "ӓ": 871,
      "ӕ": 872,
      "ӗ": 873,
      "Ә": 874,
      "ә": 875,
      "Ӝ": 876,
      "Ӡ": 877,
      "ӡ": 878,
      "ӣ": 879,
      "ӧ": 880,
      "Ө": 881,
      "ө": 882,
      "ӯ": 883,
      "Ӻ": 884,
      "Ԁ": 885,
      "ԁ": 886,
      "ԓ": 887,
      "Ԛ": 888,
      "ԛ": 889,
      "Ԝ": 890,
      "ԝ": 891,
      "Ԣ": 892,
      "ԣ": 893,
      "Ԧ": 894,
      "Ԩ": 895,
      "ԩ": 896,
      "Ա": 897,
      "Բ": 898,
      "Գ": 899,
      "Դ": 900,
      "Ե": 901,
      "Է": 902,
      "Թ": 903,
      "Ժ": 904,
      "Ի": 905,
      "Լ": 906,
      "Խ": 907,
      "Ծ": 908,
      "Կ": 909,
      "Հ": 910,
      "Ձ": 911,
      "Ղ": 912,
      "Մ": 913,
      "Յ": 914,
      "Ն": 915,
      "Շ": 916,
      "Ո": 917,
      "Պ": 918,
      "Ջ": 919,
      "Ռ": 920,
      "Ս": 921,
      "Վ": 922,
      "Տ": 923,
      "Ր": 924,
      "Ւ": 925,
      "Փ": 926,
      "Ք": 927,
      "Օ": 928,
      "Ֆ": 929,
      "՝": 930,
      "ա": 931,
      "բ": 932,
      "գ": 933,
      "դ": 934,
      "ե": 935,
      "զ": 936,
      "է": 937,
      "ը": 938,
      "թ": 939,
      "ժ": 940,
      "ի": 941,
      "լ": 942,
      "խ": 943,
      "ծ": 944,
      "կ": 945,
      "հ": 946,
      "ձ": 947,
      "ղ": 948,
      "ճ": 949,
      "մ": 950,
      "յ": 951,
      "ն": 952,
      "շ": 953,
      "ո": 954,
      "չ": 955,
      "պ": 956,
      "ջ": 957,
      "ռ": 958,
      "ս": 959,
      "վ": 960,
      "տ": 961,
      "ր": 962,
      "ց": 963,
      "ւ": 964,
      "փ": 965,
      "ք": 966,
      "օ": 967,
      "ֆ": 968,
      "։": 969,
      "֑": 970,
      "֔": 971,
      "֖": 972,
      "֗": 973,
      "֘": 974,
      "֙": 975,
      "֚": 976,
      "֜": 977,
      "֝": 978,
      "֣": 979,
      "֤": 980,
      "֥": 981,
      "֨": 982,
      "֩": 983,
      "֪": 984,
      "֫": 985,
      "֮": 986,
      "ְ": 987,
      "ֱ": 988,
      "ֲ": 989,
      "ֳ": 990,
      "ִ": 991,
      "ֵ": 992,
      "ֶ": 993,
      "ַ": 994,
      "ָ": 995,
      "ֹ": 996,
      "ֻ": 997,
      "ּ": 998,
      "ֽ": 999,
      "־": 1000,
      "ֿ": 1001,
      "׀": 1002,
      "ׁ": 1003,
      "ׂ": 1004,
      "׃": 1005,
      "א": 1006,
      "ב": 1007,
      "ג": 1008,
      "ד": 1009,
      "ה": 1010,
      "ו": 1011,
      "ז": 1012,
      "ח": 1013,
      "ט": 1014,
      "י": 1015,
      "ך": 1016,
      "כ": 1017,
      "ל": 1018,
      "ם": 1019,
      "מ": 1020,
      "ן": 1021,
      "נ": 1022,
      "ס": 1023,
      "ע": 1024,
      "ף": 1025,
      "פ": 1026,
      "ץ": 1027,
      "צ": 1028,
      "ק": 1029,
      "ר": 1030,
      "ש": 1031,
      "ת": 1032,
      "װ": 1033,
      "ײ": 1034,
      "׳": 1035,
      "״": 1036,
      "،": 1037,
      "ؔ": 1038,
      "ؘ": 1039,
      "؛": 1040,
      "؟": 1041,
      "ء": 1042,
      "آ": 1043,
      "أ": 1044,
      "ؤ": 1045,
      "إ": 1046,
      "ئ": 1047,
      "ا": 1048,
      "ب": 1049,
      "ة": 1050,
      "ت": 1051,
      "ث": 1052,
      "ج": 1053,
      "ح": 1054,
      "خ": 1055,
      "د": 1056,
      "ذ": 1057,
      "ر": 1058,
      "ز": 1059,
      "س": 1060,
      "ش": 1061,
      "ص": 1062,
      "ض": 1063,
      "ط": 1064,
      "ظ": 1065,
      "ع": 1066,
      "غ": 1067,
      "ـ": 1068,
      "ف": 1069,
      "ق": 1070,
      "ك": 1071,
      "ل": 1072,
      "م": 1073,
      "ن": 1074,
      "ه": 1075,
      "و": 1076,
      "ى": 1077,
      "ي": 1078,
      "ً": 1079,
      "ٌ": 1080,
      "ٍ": 1081,
      "َ": 1082,
      "ُ": 1083,
      "ِ": 1084,
      "ّ": 1085,
      "ْ": 1086,
      "ٔ": 1087,
      "ٜ": 1088,
      "٠": 1089,
      "١": 1090,
      "٢": 1091,
      "٣": 1092,
      "٤": 1093,
      "٥": 1094,
      "٦": 1095,
      "٧": 1096,
      "٨": 1097,
      "٩": 1098,
      "٪": 1099,
      "٫": 1100,
      "٭": 1101,
      "ٰ": 1102,
      "ٱ": 1103,
      "ٹ": 1104,
      "ٽ": 1105,
      "پ": 1106,
      "ڀ": 1107,
      "ڄ": 1108,
      "څ": 1109,
      "چ": 1110,
      "ڇ": 1111,
      "ڈ": 1112,
      "ڌ": 1113,
      "ڏ": 1114,
      "ڑ": 1115,
      "ڔ": 1116,
      "ژ": 1117,
      "ښ": 1118,
      "ڠ": 1119,
      "ڡ": 1120,
      "ڤ": 1121,
      "ک": 1122,
      "ڪ": 1123,
      "ګ": 1124,
      "ڬ": 1125,
      "گ": 1126,
      "ڵ": 1127,
      "ں": 1128,
      "ھ": 1129,
      "ہ": 1130,
      "ۆ": 1131,
      "ۇ": 1132,
      "ۊ": 1133,
      "ۋ": 1134,
      "ی": 1135,
      "ێ": 1136,
      "ې": 1137,
      "ے": 1138,
      "ۓ": 1139,
      "۔": 1140,
      "ە": 1141,
      "ۖ": 1142,
      "ۗ": 1143,
      "ۚ": 1144,
      "۝": 1145,
      "۞": 1146,
      "۟": 1147,
      "ۡ": 1148,
      "ۦ": 1149,
      "۩": 1150,
      "۰": 1151,
      "۱": 1152,
      "۲": 1153,
      "۳": 1154,
      "۴": 1155,
      "۵": 1156,
      "۶": 1157,
      "۷": 1158,
      "۸": 1159,
      "۹": 1160,
      "ܐ": 1161,
      "ܒ": 1162,
      "ܓ": 1163,
      "ܔ": 1164,
      "ܕ": 1165,
      "ܖ": 1166,
      "ܗ": 1167,
      "ܘ": 1168,
      "ܚ": 1169,
      "ܛ": 1170,
      "ܜ": 1171,
      "ܝ": 1172,
      "ܟ": 1173,
      "ܠ": 1174,
      "ܡ": 1175,
      "ܢ": 1176,
      "ܣ": 1177,
      "ܤ": 1178,
      "ܥ": 1179,
      "ܦ": 1180,
      "ܧ": 1181,
      "ܨ": 1182,
      "ܩ": 1183,
      "ܪ": 1184,
      "ܫ": 1185,
      "ܬ": 1186,
      "ܭ": 1187,
      "ܮ": 1188,
      "ܯ": 1189,
      "ܰ": 1190,
      "ܲ": 1191,
      "ܳ": 1192,
      "ܴ": 1193,
      "ܵ": 1194,
      "ܶ": 1195,
      "ܸ": 1196,
      "ܹ": 1197,
      "ܺ": 1198,
      "ܻ": 1199,
      "ܼ": 1200,
      "ܽ": 1201,
      "ܾ": 1202,
      "ܿ": 1203,
      "݀": 1204,
      "݁": 1205,
      "݅": 1206,
      "݆": 1207,
      "݇": 1208,
      "݈": 1209,
      "݉": 1210,
      "݊": 1211,
      "݋": 1212,
      "݌": 1213,
      "ݍ": 1214,
      "ݎ": 1215,
      "ݏ": 1216,
      "ݐ": 1217,
      "ݑ": 1218,
      "ݒ": 1219,
      "ݔ": 1220,
      "ݕ": 1221,
      "ݢ": 1222,
      "ހ": 1223,
      "ނ": 1224,
      "ރ": 1225,
      "ބ": 1226,
      "ޅ": 1227,
      "ކ": 1228,
      "އ": 1229,
      "ވ": 1230,
      "މ": 1231,
      "ފ": 1232,
      "ދ": 1233,
      "ތ": 1234,
      "ލ": 1235,
      "ގ": 1236,
      "ސ": 1237,
      "ޑ": 1238,
      "ޝ": 1239,
      "ަ": 1240,
      "ި": 1241,
      "ީ": 1242,
      "ު": 1243,
      "ެ": 1244,
      "ޭ": 1245,
      "ޮ": 1246,
      "ް": 1247,
      "ߋ": 1248,
      "ߙ": 1249,
      "ߚ": 1250,
      "ߠ": 1251,
      "ߤ": 1252,
      "ߨ": 1253,
      "ߩ": 1254,
      "ߪ": 1255,
      "߬": 1256,
      "߯": 1257,
      "ࠬ": 1258,
      "࡭": 1259,
      "ࡴ": 1260,
      "ࡸ": 1261,
      "ࡺ": 1262,
      "ࡼ": 1263,
      "ࡾ": 1264,
      "ࢄ": 1265,
      "ࢅ": 1266,
      "ࢉ": 1267,
      "࢏": 1268,
      "࢐": 1269,
      "ँ": 1270,
      "ं": 1271,
      "ः": 1272,
      "अ": 1273,
      "आ": 1274,
      "इ": 1275,
      "ई": 1276,
      "उ": 1277,
      "ऊ": 1278,
      "ऋ": 1279,
      "ए": 1280,
      "ऐ": 1281,
      "ऑ": 1282,
      "ओ": 1283,
      "औ": 1284,
      "क": 1285,
      "ख": 1286,
      "ग": 1287,
      "घ": 1288,
      "ङ": 1289,
      "च": 1290,
      "छ": 1291,
      "ज": 1292,
      "झ": 1293,
      "ञ": 1294,
      "ट": 1295,
      "ठ": 1296,
      "ड": 1297,
      "ढ": 1298,
      "ण": 1299,
      "त": 1300,
      "थ": 1301,
      "द": 1302,
      "ध": 1303,
      "न": 1304,
      "प": 1305,
      "फ": 1306,
      "ब": 1307,
      "भ": 1308,
      "म": 1309,
      "य": 1310,
      "र": 1311,
      "ऱ": 1312,
      "ल": 1313,
      "ळ": 1314,
      "व": 1315,
      "श": 1316,
      "ष": 1317,
      "स": 1318,
      "ह": 1319,
      "़": 1320,
      "ऽ": 1321,
      "ा": 1322,
      "ि": 1323,
      "ी": 1324,
      "ु": 1325,
      "ू": 1326,
      "ृ": 1327,
      "ॅ": 1328,
      "ॆ": 1329,
      "े": 1330,
      "ै": 1331,
      "ॉ": 1332,
      "ो": 1333,
      "ौ": 1334,
      "्": 1335,
      "ॐ": 1336,
      "॑": 1337,
      "॒": 1338,
      "।": 1339,
      "॥": 1340,
      "०": 1341,
      "१": 1342,
      "२": 1343,
      "५": 1344,
      "७": 1345,
      "९": 1346,
      "ঁ": 1347,
      "ং": 1348,
      "অ": 1349,
      "আ": 1350,
      "ই": 1351,
      "উ": 1352,
      "ঋ": 1353,
      "এ": 1354,
      "ঐ": 1355,
      "ও": 1356,
      "ঔ": 1357,
      "ক": 1358,
      "খ": 1359,
      "গ": 1360,
      "ঘ": 1361,
      "ঙ": 1362,
      "চ": 1363,
      "ছ": 1364,
      "জ": 1365,
      "ঝ": 1366,
      "ঞ": 1367,
      "ট": 1368,
      "ঠ": 1369,
      "ড": 1370,
      "ঢ": 1371,
      "ণ": 1372,
      "ত": 1373,
      "থ": 1374,
      "দ": 1375,
      "ধ": 1376,
      "ন": 1377,
      "প": 1378,
      "ফ": 1379,
      "ব": 1380,
      "ভ": 1381,
      "ম": 1382,
      "য": 1383,
      "র": 1384,
      "ল": 1385,
      "শ": 1386,
      "ষ": 1387,
      "স": 1388,
      "হ": 1389,
      "়": 1390,
      "া": 1391,
      "ি": 1392,
      "ী": 1393,
      "ু": 1394,
      "ূ": 1395,
      "ৃ": 1396,
      "ে": 1397,
      "ো": 1398,
      "ৌ": 1399,
      "্": 1400,
      "ৎ": 1401,
      "৩": 1402,
      "৪": 1403,
      "৭": 1404,
      "ৰ": 1405,
      "৳": 1406,
      "৹": 1407,
      "ਂ": 1408,
      "ਆ": 1409,
      "ਈ": 1410,
      "ਊ": 1411,
      "ਓ": 1412,
      "ਕ": 1413,
      "ਖ": 1414,
      "ਗ": 1415,
      "ਘ": 1416,
      "ਚ": 1417,
      "ਜ": 1418,
      "ਝ": 1419,
      "ਟ": 1420,
      "ਡ": 1421,
      "ਣ": 1422,
      "ਤ": 1423,
      "ਦ": 1424,
      "ਨ": 1425,
      "ਪ": 1426,
      "ਬ": 1427,
      "ਭ": 1428,
      "ਮ": 1429,
      "ਯ": 1430,
      "ਰ": 1431,
      "਱": 1432,
      "ਲ": 1433,
      "਴": 1434,
      "ਵ": 1435,
      "਷": 1436,
      "ਸ": 1437,
      "ਹ": 1438,
      "਼": 1439,
      "ਾ": 1440,
      "ਿ": 1441,
      "ੀ": 1442,
      "ੁ": 1443,
      "ੂ": 1444,
      "੅": 1445,
      "ੇ": 1446,
      "ੈ": 1447,
      "ੋ": 1448,
      "੍": 1449,
      "ੜ": 1450,
      "੭": 1451,
      "ੰ": 1452,
      "ੱ": 1453,
      "ં": 1454,
      "અ": 1455,
      "આ": 1456,
      "ઇ": 1457,
      "ઈ": 1458,
      "ઉ": 1459,
      "એ": 1460,
      "ઓ": 1461,
      "ક": 1462,
      "ખ": 1463,
      "ગ": 1464,
      "ઘ": 1465,
      "ચ": 1466,
      "છ": 1467,
      "જ": 1468,
      "ઞ": 1469,
      "ટ": 1470,
      "ઠ": 1471,
      "ડ": 1472,
      "ઢ": 1473,
      "ણ": 1474,
      "ત": 1475,
      "થ": 1476,
      "દ": 1477,
      "ધ": 1478,
      "ન": 1479,
      "પ": 1480,
      "ફ": 1481,
      "બ": 1482,
      "ભ": 1483,
      "મ": 1484,
      "ય": 1485,
      "ર": 1486,
      "લ": 1487,
      "ળ": 1488,
      "વ": 1489,
      "શ": 1490,
      "ષ": 1491,
      "સ": 1492,
      "હ": 1493,
      "ઽ": 1494,
      "ા": 1495,
      "િ": 1496,
      "ી": 1497,
      "ુ": 1498,
      "ૂ": 1499,
      "ે": 1500,
      "ૈ": 1501,
      "ો": 1502,
      "્": 1503,
      "૨": 1504,
      "૪": 1505,
      "૮": 1506,
      "૯": 1507,
      "ଅ": 1508,
      "ଆ": 1509,
      "ଇ": 1510,
      "ଉ": 1511,
      "ଏ": 1512,
      "ଓ": 1513,
      "ଔ": 1514,
      "କ": 1515,
      "ଗ": 1516,
      "ଛ": 1517,
      "ଜ": 1518,
      "ଞ": 1519,
      "ଟ": 1520,
      "ଡ": 1521,
      "ଣ": 1522,
      "ତ": 1523,
      "ଥ": 1524,
      "ନ": 1525,
      "ପ": 1526,
      "ବ": 1527,
      "ଭ": 1528,
      "ମ": 1529,
      "ର": 1530,
      "ଲ": 1531,
      "ଳ": 1532,
      "଴": 1533,
      "ଵ": 1534,
      "ଶ": 1535,
      "ଷ": 1536,
      "ସ": 1537,
      "ହ": 1538,
      "଺": 1539,
      "଻": 1540,
      "଼": 1541,
      "ା": 1542,
      "ି": 1543,
      "ୀ": 1544,
      "ୁ": 1545,
      "ୄ": 1546,
      "େ": 1547,
      "ୋ": 1548,
      "୍": 1549,
      "୔": 1550,
      "୧": 1551,
      "୨": 1552,
      "୩": 1553,
      "୪": 1554,
      "ஃ": 1555,
      "அ": 1556,
      "ஆ": 1557,
      "இ": 1558,
      "உ": 1559,
      "ஊ": 1560,
      "எ": 1561,
      "ஏ": 1562,
      "ஐ": 1563,
      "ஒ": 1564,
      "ஓ": 1565,
      "க": 1566,
      "ங": 1567,
      "ச": 1568,
      "ஜ": 1569,
      "ஞ": 1570,
      "ட": 1571,
      "ண": 1572,
      "த": 1573,
      "ந": 1574,
      "ன": 1575,
      "ப": 1576,
      "ம": 1577,
      "ய": 1578,
      "ர": 1579,
      "ற": 1580,
      "ல": 1581,
      "ள": 1582,
      "ழ": 1583,
      "வ": 1584,
      "ஷ": 1585,
      "ஸ": 1586,
      "ஹ": 1587,
      "஺": 1588,
      "ா": 1589,
      "ி": 1590,
      "ீ": 1591,
      "ு": 1592,
      "ூ": 1593,
      "௄": 1594,
      "௅": 1595,
      "ெ": 1596,
      "ே": 1597,
      "ை": 1598,
      "ொ": 1599,
      "ோ": 1600,
      "ௌ": 1601,
      "்": 1602,
      "௏": 1603,
      "ௐ": 1604,
      "௑": 1605,
      "௒": 1606,
      "௓": 1607,
      "௔": 1608,
      "௖": 1609,
      "ௗ": 1610,
      "௘": 1611,
      "௜": 1612,
      "௝": 1613,
      "௞": 1614,
      "௟": 1615,
      "௠": 1616,
      "௡": 1617,
      "௤": 1618,
      "௥": 1619,
      "௦": 1620,
      "௨": 1621,
      "௫": 1622,
      "௬": 1623,
      "௭": 1624,
      "ం": 1625,
      "ఆ": 1626,
      "ఈ": 1627,
      "ఉ": 1628,
      "క": 1629,
      "గ": 1630,
      "చ": 1631,
      "జ": 1632,
      "ట": 1633,
      "డ": 1634,
      "ణ": 1635,
      "ద": 1636,
      "న": 1637,
      "ప": 1638,
      "ఫ": 1639,
      "బ": 1640,
      "భ": 1641,
      "మ": 1642,
      "య": 1643,
      "ర": 1644,
      "ఱ": 1645,
      "ల": 1646,
      "ళ": 1647,
      "ఴ": 1648,
      "వ": 1649,
      "శ": 1650,
      "ష": 1651,
      "స": 1652,
      "హ": 1653,
      "ా": 1654,
      "ి": 1655,
      "ీ": 1656,
      "ు": 1657,
      "ూ": 1658,
      "ె": 1659,
      "ే": 1660,
      "ొ": 1661,
      "ో": 1662,
      "్": 1663,
      "౦": 1664,
      "౪": 1665,
      "ಂ": 1666,
      "ಅ": 1667,
      "ಌ": 1668,
      "ಎ": 1669,
      "ಕ": 1670,
      "ಗ": 1671,
      "ಚ": 1672,
      "ಜ": 1673,
      "ಟ": 1674,
      "ಠ": 1675,
      "ಡ": 1676,
      "ಣ": 1677,
      "ತ": 1678,
      "ದ": 1679,
      "ಧ": 1680,
      "ನ": 1681,
      "ಪ": 1682,
      "ಬ": 1683,
      "ಭ": 1684,
      "ಮ": 1685,
      "ಯ": 1686,
      "ರ": 1687,
      "ಲ": 1688,
      "ಳ": 1689,
      "ವ": 1690,
      "ಶ": 1691,
      "ಷ": 1692,
      "ಸ": 1693,
      "ಹ": 1694,
      "ಽ": 1695,
      "ಾ": 1696,
      "ಿ": 1697,
      "ೀ": 1698,
      "ು": 1699,
      "ೂ": 1700,
      "ೃ": 1701,
      "೅": 1702,
      "ೆ": 1703,
      "ೇ": 1704,
      "ೈ": 1705,
      "ೋ": 1706,
      "್": 1707,
      "ೕ": 1708,
      "ഀ": 1709,
      "ം": 1710,
      "ഃ": 1711,
      "അ": 1712,
      "ഇ": 1713,
      "ഉ": 1714,
      "ഒ": 1715,
      "ഓ": 1716,
      "ക": 1717,
      "ഖ": 1718,
      "ഗ": 1719,
      "ഘ": 1720,
      "ങ": 1721,
      "ച": 1722,
      "ജ": 1723,
      "ട": 1724,
      "ണ": 1725,
      "ത": 1726,
      "ഥ": 1727,
      "ന": 1728,
      "പ": 1729,
      "ഫ": 1730,
      "ബ": 1731,
      "ഭ": 1732,
      "മ": 1733,
      "യ": 1734,
      "ര": 1735,
      "റ": 1736,
      "ല": 1737,
      "ള": 1738,
      "ഴ": 1739,
      "വ": 1740,
      "ശ": 1741,
      "ഷ": 1742,
      "സ": 1743,
      "ഹ": 1744,
      "ാ": 1745,
      "ി": 1746,
      "ീ": 1747,
      "ു": 1748,
      "ൂ": 1749,
      "ൃ": 1750,
      "൅": 1751,
      "െ": 1752,
      "േ": 1753,
      "ൈ": 1754,
      "ൊ": 1755,
      "ോ": 1756,
      "ൌ": 1757,
      "്": 1758,
      "൛": 1759,
      "ൟ": 1760,
      "൫": 1761,
      "൬": 1762,
      "൯": 1763,
      "൰": 1764,
      "ൻ": 1765,
      "ർ": 1766,
      "ൽ": 1767,
      "ං": 1768,
      "අ": 1769,
      "ආ": 1770,
      "උ": 1771,
      "ක": 1772,
      "ග": 1773,
      "ච": 1774,
      "ජ": 1775,
      "ට": 1776,
      "ඩ": 1777,
      "ත": 1778,
      "ද": 1779,
      "ධ": 1780,
      "න": 1781,
      "ඳ": 1782,
      "ප": 1783,
      "බ": 1784,
      "ම": 1785,
      "ය": 1786,
      "ර": 1787,
      "ල": 1788,
      "ව": 1789,
      "ශ": 1790,
      "ස": 1791,
      "හ": 1792,
      "ළ": 1793,
      "්": 1794,
      "෍": 1795,
      "ා": 1796,
      "ැ": 1797,
      "ි": 1798,
      "ී": 1799,
      "ු": 1800,
      "ූ": 1801,
      "ෙ": 1802,
      "ේ": 1803,
      "ෝ": 1804,
      "෠": 1805,
      "ก": 1806,
      "ข": 1807,
      "ฃ": 1808,
      "ค": 1809,
      "ฅ": 1810,
      "ฆ": 1811,
      "ง": 1812,
      "จ": 1813,
      "ฉ": 1814,
      "ช": 1815,
      "ซ": 1816,
      "ฌ": 1817,
      "ญ": 1818,
      "ฎ": 1819,
      "ฏ": 1820,
      "ฐ": 1821,
      "ฑ": 1822,
      "ฒ": 1823,
      "ณ": 1824,
      "ด": 1825,
      "ต": 1826,
      "ถ": 1827,
      "ท": 1828,
      "ธ": 1829,
      "น": 1830,
      "บ": 1831,
      "ป": 1832,
      "ผ": 1833,
      "ฝ": 1834,
      "พ": 1835,
      "ฟ": 1836,
      "ภ": 1837,
      "ม": 1838,
      "ย": 1839,
      "ร": 1840,
      "ฤ": 1841,
      "ล": 1842,
      "ว": 1843,
      "ศ": 1844,
      "ษ": 1845,
      "ส": 1846,
      "ห": 1847,
      "ฬ": 1848,
      "อ": 1849,
      "ฮ": 1850,
      "ฯ": 1851,
      "ะ": 1852,
      "ั": 1853,
      "า": 1854,
      "ิ": 1855,
      "ี": 1856,
      "ึ": 1857,
      "ื": 1858,
      "ุ": 1859,
      "ู": 1860,
      "ฺ": 1861,
      "฿": 1862,
      "เ": 1863,
      "แ": 1864,
      "โ": 1865,
      "ใ": 1866,
      "ไ": 1867,
      "ๆ": 1868,
      "็": 1869,
      "่": 1870,
      "้": 1871,
      "๊": 1872,
      "๋": 1873,
      "์": 1874,
      "ํ": 1875,
      "๏": 1876,
      "๐": 1877,
      "๑": 1878,
      "๒": 1879,
      "๔": 1880,
      "๕": 1881,
      "๗": 1882,
      "๘": 1883,
      "๙": 1884,
      "ກ": 1885,
      "ຂ": 1886,
      "ຄ": 1887,
      "ງ": 1888,
      "ຈ": 1889,
      "ຊ": 1890,
      "ດ": 1891,
      "ຕ": 1892,
      "ທ": 1893,
      "ນ": 1894,
      "ບ": 1895,
      "ປ": 1896,
      "ຜ": 1897,
      "ມ": 1898,
      "ລ": 1899,
      "ວ": 1900,
      "ສ": 1901,
      "ຫ": 1902,
      "ອ": 1903,
      "ຮ": 1904,
      "ະ": 1905,
      "ັ": 1906,
      "າ": 1907,
      "ິ": 1908,
      "ີ": 1909,
      "ື": 1910,
      "ົ": 1911,
      "ຽ": 1912,
      "ເ": 1913,
      "ແ": 1914,
      "ໃ": 1915,
      "ໄ": 1916,
      "່": 1917,
      "້": 1918,
      "ໍ": 1919,
      "໑": 1920,
      "༄": 1921,
      "༅": 1922,
      "་": 1923,
      "།": 1924,
      "༎": 1925,
      "༼": 1926,
      "༽": 1927,
      "ཀ": 1928,
      "ཁ": 1929,
      "ག": 1930,
      "ང": 1931,
      "ཅ": 1932,
      "ཆ": 1933,
      "ཇ": 1934,
      "ཉ": 1935,
      "ཏ": 1936,
      "ཐ": 1937,
      "ད": 1938,
      "ན": 1939,
      "པ": 1940,
      "བ": 1941,
      "མ": 1942,
      "ཙ": 1943,
      "ཚ": 1944,
      "ཞ": 1945,
      "ཟ": 1946,
      "འ": 1947,
      "ཡ": 1948,
      "ར": 1949,
      "ལ": 1950,
      "ཤ": 1951,
      "ས": 1952,
      "ཨ": 1953,
      "ཱ": 1954,
      "ི": 1955,
      "ུ": 1956,
      "ེ": 1957,
      "ོ": 1958,
      "ྀ": 1959,
      "ྐ": 1960,
      "ྒ": 1961,
      "ྗ": 1962,
      "ྨ": 1963,
      "ྫ": 1964,
      "ྭ": 1965,
      "ྱ": 1966,
      "ྲ": 1967,
      "ླ": 1968,
      "ྷ": 1969,
      "က": 1970,
      "ခ": 1971,
      "ဂ": 1972,
      "င": 1973,
      "စ": 1974,
      "ဆ": 1975,
      "ဇ": 1976,
      "ဉ": 1977,
      "ည": 1978,
      "တ": 1979,
      "ထ": 1980,
      "ဒ": 1981,
      "န": 1982,
      "ပ": 1983,
      "ဖ": 1984,
      "ဗ": 1985,
      "ဘ": 1986,
      "မ": 1987,
      "ယ": 1988,
      "ရ": 1989,
      "လ": 1990,
      "ဝ": 1991,
      "သ": 1992,
      "ဟ": 1993,
      "အ": 1994,
      "ါ": 1995,
      "ာ": 1996,
      "ိ": 1997,
      "ီ": 1998,
      "ု": 1999,
      "ူ": 2000,
      "ေ": 2001,
      "ဲ": 2002,
      "ဳ": 2003,
      "ံ": 2004,
      "့": 2005,
      "း": 2006,
      "္": 2007,
      "်": 2008,
      "ျ": 2009,
      "ြ": 2010,
      "ွ": 2011,
      "ှ": 2012,
      "၀": 2013,
      "၁": 2014,
      "၊": 2015,
      "၌": 2016,
      "၍": 2017,
      "၏": 2018,
      "ၚ": 2019,
      "ၠ": 2020,
      "ၥ": 2021,
      "ၦ": 2022,
      "ၧ": 2023,
      "ၨ": 2024,
      "ၩ": 2025,
      "ၪ": 2026,
      "ၫ": 2027,
      "ၬ": 2028,
      "ၭ": 2029,
      "ႈ": 2030,
      "ႊ": 2031,
      "ႏ": 2032,
      "႔": 2033,
      "႕": 2034,
      "ა": 2035,
      "ბ": 2036,
      "გ": 2037,
      "დ": 2038,
      "ე": 2039,
      "ვ": 2040,
      "ზ": 2041,
      "თ": 2042,
      "ი": 2043,
      "კ": 2044,
      "ლ": 2045,
      "მ": 2046,
      "ნ": 2047,
      "ო": 2048,
      "პ": 2049,
      "ჟ": 2050,
      "რ": 2051,
      "ს": 2052,
      "ტ": 2053,
      "უ": 2054,
      "ფ": 2055,
      "ქ": 2056,
      "ღ": 2057,
      "ყ": 2058,
      "შ": 2059,
      "ჩ": 2060,
      "ც": 2061,
      "ძ": 2062,
      "წ": 2063,
      "ჭ": 2064,
      "ხ": 2065,
      "ჯ": 2066,
      "ჳ": 2067,
      "ᄂ": 2068,
      "ᄃ": 2069,
      "ᄄ": 2070,
      "ᄅ": 2071,
      "ᄉ": 2072,
      "ᄋ": 2073,
      "ᄑ": 2074,
      "ᄒ": 2075,
      "ᅇ": 2076,
      "ᅝ": 2077,
      "ᅟ": 2078,
      "ᅠ": 2079,
      "ᅡ": 2080,
      "ᅥ": 2081,
      "ᅩ": 2082,
      "ᅲ": 2083,
      "ᅳ": 2084,
      "ᅵ": 2085,
      "ᆺ": 2086,
      "ᇱ": 2087,
      "ሁ": 2088,
      "ሃ": 2089,
      "ህ": 2090,
      "ለ": 2091,
      "ሉ": 2092,
      "ላ": 2093,
      "ሌ": 2094,
      "ል": 2095,
      "ሎ": 2096,
      "ሐ": 2097,
      "ሓ": 2098,
      "ሕ": 2099,
      "ሖ": 2100,
      "መ": 2101,
      "ሙ": 2102,
      "ማ": 2103,
      "ም": 2104,
      "ሠ": 2105,
      "ሥ": 2106,
      "ረ": 2107,
      "ሪ": 2108,
      "ራ": 2109,
      "ሬ": 2110,
      "ር": 2111,
      "ሮ": 2112,
      "ሰ": 2113,
      "ሳ": 2114,
      "ሴ": 2115,
      "ስ": 2116,
      "ሺ": 2117,
      "ሻ": 2118,
      "ሾ": 2119,
      "ሿ": 2120,
      "ቀ": 2121,
      "ቁ": 2122,
      "ቂ": 2123,
      "ቃ": 2124,
      "ቆ": 2125,
      "ቇ": 2126,
      "ቈ": 2127,
      "቉": 2128,
      "ቌ": 2129,
      "ቍ": 2130,
      "቎": 2131,
      "቏": 2132,
      "በ": 2133,
      "ባ": 2134,
      "ቤ": 2135,
      "ብ": 2136,
      "ቦ": 2137,
      "ተ": 2138,
      "ቱ": 2139,
      "ቲ": 2140,
      "ታ": 2141,
      "ቴ": 2142,
      "ት": 2143,
      "ቸ": 2144,
      "ች": 2145,
      "ኃ": 2146,
      "ነ": 2147,
      "ና": 2148,
      "ኔ": 2149,
      "ን": 2150,
      "ኛ": 2151,
      "አ": 2152,
      "ኢ": 2153,
      "ኣ": 2154,
      "ኤ": 2155,
      "እ": 2156,
      "ከ": 2157,
      "ኪ": 2158,
      "ካ": 2159,
      "ኽ": 2160,
      "ወ": 2161,
      "ዊ": 2162,
      "ው": 2163,
      "ዎ": 2164,
      "ዓ": 2165,
      "ዕ": 2166,
      "ዘ": 2167,
      "ዙ": 2168,
      "ዚ": 2169,
      "ዛ": 2170,
      "ዝ": 2171,
      "የ": 2172,
      "ያ": 2173,
      "ዬ": 2174,
      "ይ": 2175,
      "ዮ": 2176,
      "ደ": 2177,
      "ዲ": 2178,
      "ዳ": 2179,
      "ዴ": 2180,
      "ድ": 2181,
      "ገ": 2182,
      "ጉ": 2183,
      "ግ": 2184,
      "ጎ": 2185,
      "ጣ": 2186,
      "ጨ": 2187,
      "ጪ": 2188,
      "ጭ": 2189,
      "ጵ": 2190,
      "ጻ": 2191,
      "ጽ": 2192,
      "ፄ": 2193,
      "ፈ": 2194,
      "ፊ": 2195,
      "ፋ": 2196,
      "ፍ": 2197,
      "ፕ": 2198,
      "፠": 2199,
      "፡": 2200,
      "Ꭰ": 2201,
      "Ꭲ": 2202,
      "Ꭶ": 2203,
      "Ꭹ": 2204,
      "Ꭺ": 2205,
      "Ꭻ": 2206,
      "Ꭿ": 2207,
      "Ꮃ": 2208,
      "Ꮋ": 2209,
      "Ꮐ": 2210,
      "Ꮝ": 2211,
      "Ꮤ": 2212,
      "Ꮧ": 2213,
      "Ꮪ": 2214,
      "Ꮯ": 2215,
      "Ꮲ": 2216,
      "Ꮵ": 2217,
      "Ꮿ": 2218,
      "Ᏼ": 2219,
      "ᐁ": 2220,
      "ᐃ": 2221,
      "ᐄ": 2222,
      "ᐅ": 2223,
      "ᐈ": 2224,
      "ᐉ": 2225,
      "ᐊ": 2226,
      "ᐋ": 2227,
      "ᐍ": 2228,
      "ᐏ": 2229,
      "ᐙ": 2230,
      "ᐢ": 2231,
      "ᐣ": 2232,
      "ᐤ": 2233,
      "ᐦ": 2234,
      "ᐧ": 2235,
      "ᐱ": 2236,
      "ᐲ": 2237,
      "ᐸ": 2238,
      "ᐹ": 2239,
      "ᑌ": 2240,
      "ᑎ": 2241,
      "ᑐ": 2242,
      "ᑕ": 2243,
      "ᑖ": 2244,
      "ᑗ": 2245,
      "ᑦ": 2246,
      "ᑭ": 2247,
      "ᑯ": 2248,
      "ᑲ": 2249,
      "ᑳ": 2250,
      "ᑿ": 2251,
      "ᒀ": 2252,
      "ᒃ": 2253,
      "ᒋ": 2254,
      "ᒌ": 2255,
      "ᒍ": 2256,
      "ᒐ": 2257,
      "ᒑ": 2258,
      "ᒡ": 2259,
      "ᒥ": 2260,
      "ᒧ": 2261,
      "ᒪ": 2262,
      "ᒻ": 2263,
      "ᓀ": 2264,
      "ᓂ": 2265,
      "ᓄ": 2266,
      "ᓅ": 2267,
      "ᓇ": 2268,
      "ᓈ": 2269,
      "ᓐ": 2270,
      "ᓕ": 2271,
      "ᓗ": 2272,
      "ᓚ": 2273,
      "ᓪ": 2274,
      "ᓯ": 2275,
      "ᓴ": 2276,
      "ᔅ": 2277,
      "ᔓ": 2278,
      "ᔥ": 2279,
      "ᔨ": 2280,
      "ᔪ": 2281,
      "ᔭ": 2282,
      "ᔮ": 2283,
      "ᕇ": 2284,
      "ᕈ": 2285,
      "ᕋ": 2286,
      "ᕐ": 2287,
      "ᕕ": 2288,
      "ᕗ": 2289,
      "ᕿ": 2290,
      "ᖁ": 2291,
      "ᖃ": 2292,
      "ᖅ": 2293,
      "ᖏ": 2294,
      "ᖓ": 2295,
      "ᗅ": 2296,
      "ᗌ": 2297,
      "ᗷ": 2298,
      "ᗺ": 2299,
      "ᙳ": 2300,
      "ᚢ": 2301,
      "ᚷ": 2302,
      "ᚼ": 2303,
      "ᚾ": 2304,
      "ᛁ": 2305,
      "ᛅ": 2306,
      "ᛋ": 2307,
      "ᛒ": 2308,
      "ᛞ": 2309,
      "ᛦ": 2310,
      "ក": 2311,
      "ខ": 2312,
      "គ": 2313,
      "ង": 2314,
      "ច": 2315,
      "ជ": 2316,
      "ឈ": 2317,
      "ញ": 2318,
      "ដ": 2319,
      "ឋ": 2320,
      "ណ": 2321,
      "ត": 2322,
      "ថ": 2323,
      "ទ": 2324,
      "ធ": 2325,
      "ន": 2326,
      "ប": 2327,
      "ផ": 2328,
      "ព": 2329,
      "ភ": 2330,
      "ម": 2331,
      "យ": 2332,
      "រ": 2333,
      "ល": 2334,
      "វ": 2335,
      "ស": 2336,
      "ហ": 2337,
      "ឡ": 2338,
      "អ": 2339,
      "ឧ": 2340,
      "ឲ": 2341,
      "ា": 2342,
      "ិ": 2343,
      "ី": 2344,
      "ឹ": 2345,
      "ឺ": 2346,
      "ុ": 2347,
      "ូ": 2348,
      "ួ": 2349,
      "ើ": 2350,
      "ឿ": 2351,
      "ៀ": 2352,
      "េ": 2353,
      "ែ": 2354,
      "ៃ": 2355,
      "ោ": 2356,
      "ំ": 2357,
      "ះ": 2358,
      "ៈ": 2359,
      "៉": 2360,
      "៊": 2361,
      "់": 2362,
      "៌": 2363,
      "៍": 2364,
      "័": 2365,
      "្": 2366,
      "។": 2367,
      "៙": 2368,
      "ᠠ": 2369,
      "ᠡ": 2370,
      "ᠢ": 2371,
      "ᠦ": 2372,
      "ᠨ": 2373,
      "ᠯ": 2374,
      "ᠰ": 2375,
      "ᠱ": 2376,
      "ᠲ": 2377,
      "ᠳ": 2378,
      "ᠶ": 2379,
      "ᠷ": 2380,
      "ᠻ": 2381,
      "ᡄ": 2382,
      "ᡅ": 2383,
      "ᡆ": 2384,
      "ᡑ": 2385,
      "ᡕ": 2386,
      "ᡘ": 2387,
      "ᥓ": 2388,
      "ᥙ": 2389,
      "᧐": 2390,
      "ᨈ": 2391,
      "ᨓ": 2392,
      "ᨠ": 2393,
      "ᨧ": 2394,
      "ᨱ": 2395,
      "ᨶ": 2396,
      "ᩃ": 2397,
      "ᩋ": 2398,
      "ᩕ": 2399,
      "᩠": 2400,
      "ᩢ": 2401,
      "ᩣ": 2402,
      "᩶": 2403,
      "ᬩ": 2404,
      "ᬭ": 2405,
      "ᬲ": 2406,
      "ᬶ": 2407,
      "᭄": 2408,
      "ᯮ": 2409,
      "ᰀ": 2410,
      "ᱩ": 2411,
      "ᱭ": 2412,
      "ᱰ": 2413,
      "ᱱ": 2414,
      "ᱲ": 2415,
      "ᱳ": 2416,
      "ᱵ": 2417,
      "᳝": 2418,
      "ᴀ": 2419,
      "ᴄ": 2420,
      "ᴅ": 2421,
      "ᴇ": 2422,
      "ᴍ": 2423,
      "ᴏ": 2424,
      "ᴗ": 2425,
      "ᴘ": 2426,
      "ᴛ": 2427,
      "ᴜ": 2428,
      "ᴟ": 2429,
      "ᴠ": 2430,
      "ᴡ": 2431,
      "ᴪ": 2432,
      "ᵲ": 2433,
      "ᶑ": 2434,
      "Ḁ": 2435,
      "ḁ": 2436,
      "ḃ": 2437,
      "ḇ": 2438,
      "Ḉ": 2439,
      "ḉ": 2440,
      "ḋ": 2441,
      "Ḍ": 2442,
      "ḍ": 2443,
      "Ḏ": 2444,
      "ḏ": 2445,
      "ḓ": 2446,
      "ḕ": 2447,
      "ḗ": 2448,
      "Ḟ": 2449,
      "ḟ": 2450,
      "ḡ": 2451,
      "Ḥ": 2452,
      "ḥ": 2453,
      "Ḩ": 2454,
      "ḩ": 2455,
      "Ḫ": 2456,
      "ḫ": 2457,
      "ḭ": 2458,
      "ḯ": 2459,
      "ḱ": 2460,
      "Ḳ": 2461,
      "ḳ": 2462,
      "Ḵ": 2463,
      "ḵ": 2464,
      "Ḷ": 2465,
      "ḷ": 2466,
      "ḻ": 2467,
      "ḿ": 2468,
      "ṁ": 2469,
      "ṃ": 2470,
      "ṅ": 2471,
      "Ṇ": 2472,
      "ṇ": 2473,
      "Ṉ": 2474,
      "ṉ": 2475,
      "ṋ": 2476,
      "ṏ": 2477,
      "ṑ": 2478,
      "ṓ": 2479,
      "ṕ": 2480,
      "Ṙ": 2481,
      "ṙ": 2482,
      "Ṛ": 2483,
      "ṛ": 2484,
      "ṝ": 2485,
      "ṟ": 2486,
      "Ṣ": 2487,
      "ṣ": 2488,
      "ṥ": 2489,
      "ṫ": 2490,
      "Ṭ": 2491,
      "ṭ": 2492,
      "Ṯ": 2493,
      "ṯ": 2494,
      "ṱ": 2495,
      "ṷ": 2496,
      "ṹ": 2497,
      "Ṽ": 2498,
      "ṿ": 2499,
      "ẁ": 2500,
      "ẋ": 2501,
      "ẍ": 2502,
      "ẏ": 2503,
      "Ẑ": 2504,
      "ẑ": 2505,
      "Ẓ": 2506,
      "ẓ": 2507,
      "ẕ": 2508,
      "ẖ": 2509,
      "ẗ": 2510,
      "ẞ": 2511,
      "ẟ": 2512,
      "ạ": 2513,
      "ả": 2514,
      "Ấ": 2515,
      "ấ": 2516,
      "ầ": 2517,
      "Ẩ": 2518,
      "ẩ": 2519,
      "ẫ": 2520,
      "ậ": 2521,
      "Ắ": 2522,
      "ắ": 2523,
      "ằ": 2524,
      "ẳ": 2525,
      "ẵ": 2526,
      "ặ": 2527,
      "Ẹ": 2528,
      "ẹ": 2529,
      "ẻ": 2530,
      "Ẽ": 2531,
      "ẽ": 2532,
      "ế": 2533,
      "ề": 2534,
      "ể": 2535,
      "ễ": 2536,
      "ệ": 2537,
      "ỉ": 2538,
      "ị": 2539,
      "Ọ": 2540,
      "ọ": 2541,
      "ỏ": 2542,
      "ố": 2543,
      "ồ": 2544,
      "ổ": 2545,
      "ỗ": 2546,
      "ộ": 2547,
      "ớ": 2548,
      "ờ": 2549,
      "ở": 2550,
      "ỡ": 2551,
      "Ợ": 2552,
      "ợ": 2553,
      "ụ": 2554,
      "Ủ": 2555,
      "ủ": 2556,
      "Ứ": 2557,
      "ứ": 2558,
      "ừ": 2559,
      "ử": 2560,
      "ữ": 2561,
      "ự": 2562,
      "ỳ": 2563,
      "ỵ": 2564,
      "ỷ": 2565,
      "Ỹ": 2566,
      "ỹ": 2567,
      "ἀ": 2568,
      "ἁ": 2569,
      "ἄ": 2570,
      "ἅ": 2571,
      "ἆ": 2572,
      "Ἀ": 2573,
      "Ἁ": 2574,
      "Ἃ": 2575,
      "Ἄ": 2576,
      "Ἅ": 2577,
      "ἐ": 2578,
      "ἑ": 2579,
      "ἒ": 2580,
      "ἔ": 2581,
      "ἕ": 2582,
      "Ἐ": 2583,
      "Ἑ": 2584,
      "Ἓ": 2585,
      "Ἔ": 2586,
      "Ἕ": 2587,
      "ἠ": 2588,
      "ἡ": 2589,
      "ἢ": 2590,
      "ἤ": 2591,
      "ἥ": 2592,
      "ἦ": 2593,
      "ἧ": 2594,
      "Ἠ": 2595,
      "Ἡ": 2596,
      "Ἥ": 2597,
      "ἰ": 2598,
      "ἱ": 2599,
      "ἲ": 2600,
      "ἳ": 2601,
      "ἴ": 2602,
      "ἵ": 2603,
      "ἶ": 2604,
      "ἷ": 2605,
      "Ἰ": 2606,
      "Ἱ": 2607,
      "Ἴ": 2608,
      "Ἵ": 2609,
      "Ἶ": 2610,
      "ὀ": 2611,
      "ὁ": 2612,
      "ὃ": 2613,
      "ὄ": 2614,
      "ὅ": 2615,
      "Ὀ": 2616,
      "Ὁ": 2617,
      "Ὄ": 2618,
      "Ὅ": 2619,
      "ὐ": 2620,
      "ὑ": 2621,
      "ὒ": 2622,
      "ὔ": 2623,
      "ὕ": 2624,
      "ὖ": 2625,
      "ὗ": 2626,
      "Ὑ": 2627,
      "Ὕ": 2628,
      "ὠ": 2629,
      "ὡ": 2630,
      "ὤ": 2631,
      "ὥ": 2632,
      "ὰ": 2633,
      "ὲ": 2634,
      "ὴ": 2635,
      "ὶ": 2636,
      "ὸ": 2637,
      "ὺ": 2638,
      "ὼ": 2639,
      "ᾆ": 2640,
      "ᾑ": 2641,
      "ᾖ": 2642,
      "ᾦ": 2643,
      "ᾮ": 2644,
      "ᾰ": 2645,
      "ᾱ": 2646,
      "ᾳ": 2647,
      "ᾶ": 2648,
      "ᾷ": 2649,
      "ῃ": 2650,
      "ῆ": 2651,
      "ῇ": 2652,
      "ῐ": 2653,
      "ῑ": 2654,
      "ῖ": 2655,
      "ῠ": 2656,
      "ῤ": 2657,
      "ῥ": 2658,
      "ῦ": 2659,
      "Ῥ": 2660,
      "ῳ": 2661,
      "ῴ": 2662,
      "ῶ": 2663,
      "ῷ": 2664,
      "​": 2665,
      "‌": 2666,
      "‍": 2667,
      "‎": 2668,
      "‏": 2669,
      "‐": 2670,
      "‒": 2671,
      "–": 2672,
      "—": 2673,
      "―": 2674,
      "‖": 2675,
      "‘": 2676,
      "’": 2677,
      "‚": 2678,
      "‛": 2679,
      "“": 2680,
      "”": 2681,
      "„": 2682,
      "‟": 2683,
      "†": 2684,
      "‡": 2685,
      "•": 2686,
      "‣": 2687,
      "‧": 2688,
      " ": 2689,
      " ": 2690,
      "‪": 2691,
      "‫": 2692,
      "‬": 2693,
      "‭": 2694,
      "‰": 2695,
      "‱": 2696,
      "′": 2697,
      "‵": 2698,
      "‸": 2699,
      "‹": 2700,
      "›": 2701,
      "※": 2702,
      "‽": 2703,
      "‿": 2704,
      "⁂": 2705,
      "⁃": 2706,
      "⁄": 2707,
      "⁎": 2708,
      "⁒": 2709,
      "⁔": 2710,
      "⁞": 2711,
      "⁠": 2712,
      "⁡": 2713,
      "⁢": 2714,
      "⁣": 2715,
      "⁦": 2716,
      "⁩": 2717,
      "⁭": 2718,
      "⁮": 2719,
      "⁯": 2720,
      "₠": 2721,
      "₡": 2722,
      "₢": 2723,
      "₤": 2724,
      "₦": 2725,
      "₩": 2726,
      "₪": 2727,
      "₫": 2728,
      "€": 2729,
      "₭": 2730,
      "₮": 2731,
      "₯": 2732,
      "₱": 2733,
      "₲": 2734,
      "₳": 2735,
      "₴": 2736,
      "₵": 2737,
      "₸": 2738,
      "₹": 2739,
      "₺": 2740,
      "₽": 2741,
      "₿": 2742,
      "⃗": 2743,
      "⃝": 2744,
      "⃣": 2745,
      "℗": 2746,
      "℘": 2747,
      "℞": 2748,
      "℮": 2749,
      "Ↄ": 2750,
      "ↄ": 2751,
      "←": 2752,
      "↑": 2753,
      "→": 2754,
      "↓": 2755,
      "↔": 2756,
      "↕": 2757,
      "↗": 2758,
      "↘": 2759,
      "↙": 2760,
      "↠": 2761,
      "↣": 2762,
      "↤": 2763,
      "↦": 2764,
      "↨": 2765,
      "↩": 2766,
      "↪": 2767,
      "↯": 2768,
      "↲": 2769,
      "↳": 2770,
      "↵": 2771,
      "↺": 2772,
      "↻": 2773,
      "⇀": 2774,
      "⇄": 2775,
      "⇆": 2776,
      "⇉": 2777,
      "⇊": 2778,
      "⇌": 2779,
      "⇐": 2780,
      "⇑": 2781,
      "⇒": 2782,
      "⇓": 2783,
      "⇔": 2784,
      "⇕": 2785,
      "⇢": 2786,
      "⇣": 2787,
      "⇦": 2788,
      "⇧": 2789,
      "⇨": 2790,
      "⇩": 2791,
      "⇮": 2792,
      "∀": 2793,
      "∂": 2794,
      "∃": 2795,
      "∅": 2796,
      "∆": 2797,
      "∇": 2798,
      "∈": 2799,
      "∉": 2800,
      "∋": 2801,
      "∎": 2802,
      "∏": 2803,
      "∑": 2804,
      "−": 2805,
      "∓": 2806,
      "∕": 2807,
      "∖": 2808,
      "∗": 2809,
      "∘": 2810,
      "∙": 2811,
      "√": 2812,
      "∝": 2813,
      "∞": 2814,
      "∟": 2815,
      "∠": 2816,
      "∡": 2817,
      "∣": 2818,
      "∥": 2819,
      "∧": 2820,
      "∨": 2821,
      "∩": 2822,
      "∪": 2823,
      "∫": 2824,
      "∴": 2825,
      "∶": 2826,
      "∼": 2827,
      "∿": 2828,
      "≀": 2829,
      "≃": 2830,
      "≅": 2831,
      "≈": 2832,
      "≋": 2833,
      "≐": 2834,
      "≖": 2835,
      "≜": 2836,
      "≟": 2837,
      "≠": 2838,
      "≡": 2839,
      "≤": 2840,
      "≥": 2841,
      "≦": 2842,
      "≧": 2843,
      "≪": 2844,
      "≫": 2845,
      "≯": 2846,
      "≲": 2847,
      "≳": 2848,
      "⊂": 2849,
      "⊃": 2850,
      "⊆": 2851,
      "⊇": 2852,
      "⊊": 2853,
      "⊋": 2854,
      "⊕": 2855,
      "⊗": 2856,
      "⊘": 2857,
      "⊙": 2858,
      "⊢": 2859,
      "⊣": 2860,
      "⊤": 2861,
      "⊥": 2862,
      "⊧": 2863,
      "⊨": 2864,
      "⋀": 2865,
      "⋃": 2866,
      "⋅": 2867,
      "⋆": 2868,
      "⋊": 2869,
      "⋍": 2870,
      "⋙": 2871,
      "⋮": 2872,
      "⋯": 2873,
      "⌂": 2874,
      "⌄": 2875,
      "⌈": 2876,
      "⌉": 2877,
      "⌊": 2878,
      "⌋": 2879,
      "⌓": 2880,
      "⌕": 2881,
      "⌘": 2882,
      "⌚": 2883,
      "⌛": 2884,
      "⌥": 2885,
      "⌨": 2886,
      "⍝": 2887,
      "⍟": 2888,
      "⎖": 2889,
      "⎛": 2890,
      "⎜": 2891,
      "⎝": 2892,
      "⎞": 2893,
      "⎟": 2894,
      "⎠": 2895,
      "⎡": 2896,
      "⎢": 2897,
      "⎣": 2898,
      "⎤": 2899,
      "⎥": 2900,
      "⎦": 2901,
      "⎧": 2902,
      "⎨": 2903,
      "⎩": 2904,
      "⎪": 2905,
      "⎫": 2906,
      "⎬": 2907,
      "⎭": 2908,
      "⎮": 2909,
      "⎯": 2910,
      "⎼": 2911,
      "⏐": 2912,
      "⏩": 2913,
      "⏪": 2914,
      "⏬": 2915,
      "⏭": 2916,
      "⏰": 2917,
      "⏱": 2918,
      "⏳": 2919,
      "⏺": 2920,
      "␣": 2921,
      "␥": 2922,
      "⑅": 2923,
      "─": 2924,
      "━": 2925,
      "│": 2926,
      "┃": 2927,
      "┈": 2928,
      "┌": 2929,
      "┏": 2930,
      "┐": 2931,
      "┓": 2932,
      "└": 2933,
      "┗": 2934,
      "┘": 2935,
      "├": 2936,
      "┣": 2937,
      "┤": 2938,
      "┫": 2939,
      "┬": 2940,
      "┳": 2941,
      "┴": 2942,
      "┼": 2943,
      "╋": 2944,
      "═": 2945,
      "║": 2946,
      "╔": 2947,
      "╗": 2948,
      "╚": 2949,
      "╝": 2950,
      "╢": 2951,
      "╥": 2952,
      "╬": 2953,
      "╮": 2954,
      "╰": 2955,
      "╱": 2956,
      "╹": 2957,
      "▀": 2958,
      "▁": 2959,
      "▄": 2960,
      "▅": 2961,
      "▆": 2962,
      "▇": 2963,
      "█": 2964,
      "▌": 2965,
      "▎": 2966,
      "░": 2967,
      "▒": 2968,
      "▓": 2969,
      "■": 2970,
      "□": 2971,
      "▥": 2972,
      "▪": 2973,
      "▫": 2974,
      "▬": 2975,
      "▰": 2976,
      "▱": 2977,
      "▲": 2978,
      "△": 2979,
      "▶": 2980,
      "▷": 2981,
      "▸": 2982,
      "►": 2983,
      "▻": 2984,
      "▼": 2985,
      "▽": 2986,
      "▾": 2987,
      "▿": 2988,
      "◀": 2989,
      "◁": 2990,
      "◂": 2991,
      "◄": 2992,
      "◆": 2993,
      "◇": 2994,
      "◈": 2995,
      "◉": 2996,
      "◊": 2997,
      "○": 2998,
      "◌": 2999,
      "◎": 3000,
      "●": 3001,
      "◑": 3002,
      "◔": 3003,
      "◕": 3004,
      "◘": 3005,
      "◙": 3006,
      "◜": 3007,
      "◝": 3008,
      "◞": 3009,
      "◟": 3010,
      "◠": 3011,
      "◡": 3012,
      "◤": 3013,
      "◥": 3014,
      "◦": 3015,
      "◯": 3016,
      "◼": 3017,
      "◽": 3018,
      "◾": 3019,
      "☀": 3020,
      "☁": 3021,
      "☂": 3022,
      "☃": 3023,
      "☄": 3024,
      "★": 3025,
      "☆": 3026,
      "☉": 3027,
      "☎": 3028,
      "☏": 3029,
      "☐": 3030,
      "☑": 3031,
      "☒": 3032,
      "☔": 3033,
      "☕": 3034,
      "☘": 3035,
      "☛": 3036,
      "☜": 3037,
      "☝": 3038,
      "☞": 3039,
      "☠": 3040,
      "☢": 3041,
      "☤": 3042,
      "☥": 3043,
      "☧": 3044,
      "☩": 3045,
      "☮": 3046,
      "☯": 3047,
      "☰": 3048,
      "☷": 3049,
      "☸": 3050,
      "☹": 3051,
      "☺": 3052,
      "☻": 3053,
      "☼": 3054,
      "☽": 3055,
      "☾": 3056,
      "☿": 3057,
      "♀": 3058,
      "♁": 3059,
      "♂": 3060,
      "♃": 3061,
      "♅": 3062,
      "♈": 3063,
      "♉": 3064,
      "♊": 3065,
      "♋": 3066,
      "♌": 3067,
      "♍": 3068,
      "♎": 3069,
      "♏": 3070,
      "♐": 3071,
      "♑": 3072,
      "♒": 3073,
      "♓": 3074,
      "♔": 3075,
      "♕": 3076,
      "♖": 3077,
      "♗": 3078,
      "♘": 3079,
      "♙": 3080,
      "♚": 3081,
      "♛": 3082,
      "♟": 3083,
      "♠": 3084,
      "♡": 3085,
      "♢": 3086,
      "♣": 3087,
      "♤": 3088,
      "♥": 3089,
      "♦": 3090,
      "♨": 3091,
      "♩": 3092,
      "♪": 3093,
      "♫": 3094,
      "♬": 3095,
      "♭": 3096,
      "♮": 3097,
      "♯": 3098,
      "♻": 3099,
      "⚒": 3100,
      "⚓": 3101,
      "⚔": 3102,
      "⚕": 3103,
      "⚖": 3104,
      "⚙": 3105,
      "⚜": 3106,
      "⚠": 3107,
      "⚡": 3108,
      "⚪": 3109,
      "⚫": 3110,
      "⚭": 3111,
      "⚱": 3112,
      "⚲": 3113,
      "⚽": 3114,
      "⚾": 3115,
      "⛄": 3116,
      "⛑": 3117,
      "⛔": 3118,
      "⛪": 3119,
      "⛰": 3120,
      "⛱": 3121,
      "⛲": 3122,
      "⛳": 3123,
      "⛴": 3124,
      "⛸": 3125,
      "⛹": 3126,
      "✁": 3127,
      "✂": 3128,
      "✅": 3129,
      "✆": 3130,
      "✈": 3131,
      "✉": 3132,
      "✊": 3133,
      "✋": 3134,
      "✌": 3135,
      "✍": 3136,
      "✎": 3137,
      "✏": 3138,
      "✒": 3139,
      "✓": 3140,
      "✔": 3141,
      "✕": 3142,
      "✖": 3143,
      "✗": 3144,
      "✘": 3145,
      "✚": 3146,
      "✝": 3147,
      "✠": 3148,
      "✣": 3149,
      "✤": 3150,
      "✥": 3151,
      "✦": 3152,
      "✧": 3153,
      "✨": 3154,
      "✩": 3155,
      "✪": 3156,
      "✫": 3157,
      "✭": 3158,
      "✯": 3159,
      "✰": 3160,
      "✱": 3161,
      "✲": 3162,
      "✳": 3163,
      "✴": 3164,
      "✶": 3165,
      "✺": 3166,
      "✻": 3167,
      "✼": 3168,
      "✽": 3169,
      "✿": 3170,
      "❀": 3171,
      "❁": 3172,
      "❂": 3173,
      "❄": 3174,
      "❇": 3175,
      "❉": 3176,
      "❋": 3177,
      "❌": 3178,
      "❏": 3179,
      "❑": 3180,
      "❒": 3181,
      "❓": 3182,
      "❔": 3183,
      "❕": 3184,
      "❖": 3185,
      "❗": 3186,
      "❘": 3187,
      "❛": 3188,
      "❜": 3189,
      "❝": 3190,
      "❞": 3191,
      "❣": 3192,
      "❤": 3193,
      "❥": 3194,
      "❦": 3195,
      "❯": 3196,
      "❱": 3197,
      "❶": 3198,
      "➀": 3199,
      "➄": 3200,
      "➆": 3201,
      "➈": 3202,
      "➊": 3203,
      "➋": 3204,
      "➌": 3205,
      "➍": 3206,
      "➎": 3207,
      "➔": 3208,
      "➕": 3209,
      "➖": 3210,
      "➙": 3211,
      "➛": 3212,
      "➜": 3213,
      "➝": 3214,
      "➞": 3215,
      "➠": 3216,
      "➡": 3217,
      "➢": 3218,
      "➣": 3219,
      "➤": 3220,
      "➥": 3221,
      "➦": 3222,
      "➧": 3223,
      "➨": 3224,
      "➪": 3225,
      "➯": 3226,
      "➳": 3227,
      "➸": 3228,
      "➹": 3229,
      "➻": 3230,
      "➼": 3231,
      "⟨": 3232,
      "⟩": 3233,
      "⟫": 3234,
      "⟵": 3235,
      "⟶": 3236,
      "⟹": 3237,
      "⠀": 3238,
      "⠂": 3239,
      "⠇": 3240,
      "⠨": 3241,
      "⠲": 3242,
      "⤠": 3243,
      "⤴": 3244,
      "⤵": 3245,
      "⤷": 3246,
      "⥔": 3247,
      "⦁": 3248,
      "⦿": 3249,
      "⧢": 3250,
      "⧸": 3251,
      "⨁": 3252,
      "⨪": 3253,
      "⩲": 3254,
      "⩽": 3255,
      "⩾": 3256,
      "⫋": 3257,
      "⬅": 3258,
      "⬆": 3259,
      "⬇": 3260,
      "⬎": 3261,
      "⭐": 3262,
      "⭕": 3263,
      "Ⱋ": 3264,
      "Ⱎ": 3265,
      "ⲃ": 3266,
      "ⲉ": 3267,
      "ⲓ": 3268,
      "ⲙ": 3269,
      "Ⲟ": 3270,
      "ⲟ": 3271,
      "ⲣ": 3272,
      "ⲥ": 3273,
      "ⲩ": 3274,
      "ⴰ": 3275,
      "ⴱ": 3276,
      "ⴳ": 3277,
      "ⴶ": 3278,
      "ⴷ": 3279,
      "ⴻ": 3280,
      "ⴼ": 3281,
      "ⴽ": 3282,
      "ⴾ": 3283,
      "ⵂ": 3284,
      "ⵃ": 3285,
      "ⵄ": 3286,
      "ⵆ": 3287,
      "ⵉ": 3288,
      "ⵌ": 3289,
      "ⵍ": 3290,
      "ⵎ": 3291,
      "ⵏ": 3292,
      "ⵓ": 3293,
      "ⵔ": 3294,
      "ⵙ": 3295,
      "ⵛ": 3296,
      "ⵜ": 3297,
      "ⵟ": 3298,
      "ⵡ": 3299,
      "ⵢ": 3300,
      "ⵣ": 3301,
      "⵭": 3302,
      "⸵": 3303,
      "⸶": 3304,
      "⹣": 3305,
      "⺮": 3306,
      "、": 3307,
      "。": 3308,
      "〃": 3309,
      "々": 3310,
      "〇": 3311,
      "〈": 3312,
      "〉": 3313,
      "《": 3314,
      "》": 3315,
      "「": 3316,
      "」": 3317,
      "『": 3318,
      "』": 3319,
      "【": 3320,
      "】": 3321,
      "〒": 3322,
      "〕": 3323,
      "〖": 3324,
      "〗": 3325,
      "〜": 3326,
      "〠": 3327,
      "〮": 3328,
      "〰": 3329,
      "〷": 3330,
      "〽": 3331,
      "ぁ": 3332,
      "あ": 3333,
      "い": 3334,
      "ぅ": 3335,
      "う": 3336,
      "ぇ": 3337,
      "え": 3338,
      "ぉ": 3339,
      "お": 3340,
      "か": 3341,
      "が": 3342,
      "き": 3343,
      "ぎ": 3344,
      "く": 3345,
      "ぐ": 3346,
      "け": 3347,
      "げ": 3348,
      "こ": 3349,
      "ご": 3350,
      "さ": 3351,
      "ざ": 3352,
      "し": 3353,
      "じ": 3354,
      "す": 3355,
      "ず": 3356,
      "せ": 3357,
      "ぜ": 3358,
      "そ": 3359,
      "ぞ": 3360,
      "た": 3361,
      "だ": 3362,
      "ち": 3363,
      "ぢ": 3364,
      "っ": 3365,
      "つ": 3366,
      "づ": 3367,
      "て": 3368,
      "で": 3369,
      "と": 3370,
      "ど": 3371,
      "な": 3372,
      "に": 3373,
      "ぬ": 3374,
      "ね": 3375,
      "の": 3376,
      "は": 3377,
      "ば": 3378,
      "ぱ": 3379,
      "ひ": 3380,
      "び": 3381,
      "ぴ": 3382,
      "ふ": 3383,
      "ぶ": 3384,
      "ぷ": 3385,
      "へ": 3386,
      "べ": 3387,
      "ぺ": 3388,
      "ほ": 3389,
      "ぼ": 3390,
      "ぽ": 3391,
      "ま": 3392,
      "み": 3393,
      "む": 3394,
      "め": 3395,
      "も": 3396,
      "ゃ": 3397,
      "や": 3398,
      "ゅ": 3399,
      "ゆ": 3400,
      "ょ": 3401,
      "よ": 3402,
      "ら": 3403,
      "り": 3404,
      "る": 3405,
      "れ": 3406,
      "ろ": 3407,
      "わ": 3408,
      "ゐ": 3409,
      "ゑ": 3410,
      "を": 3411,
      "ん": 3412,
      "゚": 3413,
      "ゞ": 3414,
      "ァ": 3415,
      "ア": 3416,
      "ィ": 3417,
      "イ": 3418,
      "ゥ": 3419,
      "ウ": 3420,
      "ェ": 3421,
      "エ": 3422,
      "ォ": 3423,
      "オ": 3424,
      "カ": 3425,
      "ガ": 3426,
      "キ": 3427,
      "ギ": 3428,
      "ク": 3429,
      "グ": 3430,
      "ケ": 3431,
      "ゲ": 3432,
      "コ": 3433,
      "ゴ": 3434,
      "サ": 3435,
      "ザ": 3436,
      "シ": 3437,
      "ジ": 3438,
      "ス": 3439,
      "ズ": 3440,
      "セ": 3441,
      "ゼ": 3442,
      "ソ": 3443,
      "ゾ": 3444,
      "タ": 3445,
      "ダ": 3446,
      "チ": 3447,
      "ッ": 3448,
      "ツ": 3449,
      "テ": 3450,
      "デ": 3451,
      "ト": 3452,
      "ド": 3453,
      "ナ": 3454,
      "ニ": 3455,
      "ヌ": 3456,
      "ネ": 3457,
      "ノ": 3458,
      "ハ": 3459,
      "バ": 3460,
      "パ": 3461,
      "ヒ": 3462,
      "ビ": 3463,
      "ピ": 3464,
      "フ": 3465,
      "ブ": 3466,
      "プ": 3467,
      "ヘ": 3468,
      "ベ": 3469,
      "ペ": 3470,
      "ホ": 3471,
      "ボ": 3472,
      "ポ": 3473,
      "マ": 3474,
      "ミ": 3475,
      "ム": 3476,
      "メ": 3477,
      "モ": 3478,
      "ャ": 3479,
      "ヤ": 3480,
      "ュ": 3481,
      "ユ": 3482,
      "ョ": 3483,
      "ヨ": 3484,
      "ラ": 3485,
      "リ": 3486,
      "ル": 3487,
      "レ": 3488,
      "ロ": 3489,
      "ヮ": 3490,
      "ワ": 3491,
      "ヰ": 3492,
      "ヲ": 3493,
      "ン": 3494,
      "ヴ": 3495,
      "ヶ": 3496,
      "・": 3497,
      "ー": 3498,
      "ヽ": 3499,
      "ヾ": 3500,
      "ㄒ": 3501,
      "ㄠ": 3502,
      "ㄦ": 3503,
      "㄰": 3504,
      "ㇺ": 3505,
      "㐊": 3506,
      "㐮": 3507,
      "㐰": 3508,
      "㐳": 3509,
      "㐷": 3510,
      "㐾": 3511,
      "㔮": 3512,
      "㔲": 3513,
      "㔳": 3514,
      "㔵": 3515,
      "㔶": 3516,
      "㘱": 3517,
      "㘴": 3518,
      "㘷": 3519,
      "㙄": 3520,
      "㜠": 3521,
      "㜸": 3522,
      "㜹": 3523,
      "㝄": 3524,
      "㟭": 3525,
      "㠲": 3526,
      "㠳": 3527,
      "㠷": 3528,
      "㡹": 3529,
      "㤠": 3530,
      "㤾": 3531,
      "㾬": 3532,
      "㿔": 3533,
      "㿜": 3534,
      "㿣": 3535,
      "䉔": 3536,
      "䘰": 3537,
      "䠩": 3538,
      "䰊": 3539,
      "䰩": 3540,
      "䰿": 3541,
      "一": 3542,
      "丁": 3543,
      "七": 3544,
      "万": 3545,
      "丈": 3546,
      "三": 3547,
      "上": 3548,
      "下": 3549,
      "不": 3550,
      "与": 3551,
      "丑": 3552,
      "专": 3553,
      "且": 3554,
      "世": 3555,
      "丘": 3556,
      "丙": 3557,
      "业": 3558,
      "丛": 3559,
      "东": 3560,
      "丝": 3561,
      "丞": 3562,
      "両": 3563,
      "丢": 3564,
      "两": 3565,
      "严": 3566,
      "並": 3567,
      "丨": 3568,
      "个": 3569,
      "丫": 3570,
      "丬": 3571,
      "中": 3572,
      "丰": 3573,
      "串": 3574,
      "临": 3575,
      "丶": 3576,
      "丷": 3577,
      "丸": 3578,
      "丹": 3579,
      "为": 3580,
      "主": 3581,
      "丽": 3582,
      "举": 3583,
      "丿": 3584,
      "乃": 3585,
      "久": 3586,
      "么": 3587,
      "义": 3588,
      "之": 3589,
      "乌": 3590,
      "乎": 3591,
      "乐": 3592,
      "乔": 3593,
      "乗": 3594,
      "乙": 3595,
      "九": 3596,
      "乞": 3597,
      "也": 3598,
      "习": 3599,
      "乡": 3600,
      "书": 3601,
      "买": 3602,
      "乱": 3603,
      "乳": 3604,
      "乸": 3605,
      "乾": 3606,
      "亀": 3607,
      "亂": 3608,
      "了": 3609,
      "予": 3610,
      "争": 3611,
      "事": 3612,
      "二": 3613,
      "于": 3614,
      "亏": 3615,
      "云": 3616,
      "互": 3617,
      "五": 3618,
      "井": 3619,
      "亚": 3620,
      "些": 3621,
      "亜": 3622,
      "亞": 3623,
      "亠": 3624,
      "亡": 3625,
      "交": 3626,
      "亦": 3627,
      "产": 3628,
      "亨": 3629,
      "亩": 3630,
      "享": 3631,
      "京": 3632,
      "亭": 3633,
      "亮": 3634,
      "亲": 3635,
      "亳": 3636,
      "亶": 3637,
      "人": 3638,
      "亻": 3639,
      "亿": 3640,
      "什": 3641,
      "仁": 3642,
      "仅": 3643,
      "仇": 3644,
      "今": 3645,
      "介": 3646,
      "仍": 3647,
      "从": 3648,
      "仏": 3649,
      "仓": 3650,
      "仔": 3651,
      "仕": 3652,
      "他": 3653,
      "仗": 3654,
      "付": 3655,
      "仙": 3656,
      "仝": 3657,
      "仡": 3658,
      "代": 3659,
      "令": 3660,
      "以": 3661,
      "们": 3662,
      "仮": 3663,
      "仰": 3664,
      "仲": 3665,
      "件": 3666,
      "价": 3667,
      "任": 3668,
      "份": 3669,
      "仿": 3670,
      "企": 3671,
      "伉": 3672,
      "伊": 3673,
      "伍": 3674,
      "伎": 3675,
      "伏": 3676,
      "休": 3677,
      "众": 3678,
      "优": 3679,
      "伙": 3680,
      "会": 3681,
      "伝": 3682,
      "伞": 3683,
      "伟": 3684,
      "传": 3685,
      "伤": 3686,
      "伦": 3687,
      "伯": 3688,
      "伴": 3689,
      "伶": 3690,
      "伸": 3691,
      "似": 3692,
      "伽": 3693,
      "但": 3694,
      "佈": 3695,
      "位": 3696,
      "低": 3697,
      "住": 3698,
      "佐": 3699,
      "佑": 3700,
      "体": 3701,
      "佔": 3702,
      "何": 3703,
      "余": 3704,
      "佚": 3705,
      "佛": 3706,
      "作": 3707,
      "你": 3708,
      "佩": 3709,
      "佬": 3710,
      "佳": 3711,
      "使": 3712,
      "侄": 3713,
      "來": 3714,
      "例": 3715,
      "侍": 3716,
      "侑": 3717,
      "侘": 3718,
      "供": 3719,
      "依": 3720,
      "侠": 3721,
      "価": 3722,
      "侧": 3723,
      "侮": 3724,
      "侯": 3725,
      "侵": 3726,
      "便": 3727,
      "係": 3728,
      "促": 3729,
      "俄": 3730,
      "俊": 3731,
      "俏": 3732,
      "俗": 3733,
      "保": 3734,
      "俞": 3735,
      "俠": 3736,
      "信": 3737,
      "俣": 3738,
      "俨": 3739,
      "俭": 3740,
      "修": 3741,
      "俯": 3742,
      "俳": 3743,
      "俵": 3744,
      "俺": 3745,
      "倉": 3746,
      "個": 3747,
      "倍": 3748,
      "們": 3749,
      "倒": 3750,
      "倔": 3751,
      "倘": 3752,
      "候": 3753,
      "借": 3754,
      "倡": 3755,
      "値": 3756,
      "倪": 3757,
      "倫": 3758,
      "倭": 3759,
      "倮": 3760,
      "倶": 3761,
      "债": 3762,
      "值": 3763,
      "假": 3764,
      "偉": 3765,
      "偏": 3766,
      "做": 3767,
      "停": 3768,
      "健": 3769,
      "側": 3770,
      "偵": 3771,
      "偶": 3772,
      "偷": 3773,
      "偽": 3774,
      "傀": 3775,
      "傅": 3776,
      "傈": 3777,
      "傑": 3778,
      "傘": 3779,
      "備": 3780,
      "傣": 3781,
      "储": 3782,
      "催": 3783,
      "傲": 3784,
      "傳": 3785,
      "債": 3786,
      "傷": 3787,
      "傻": 3788,
      "僉": 3789,
      "働": 3790,
      "像": 3791,
      "僕": 3792,
      "僖": 3793,
      "僚": 3794,
      "僧": 3795,
      "價": 3796,
      "僻": 3797,
      "儀": 3798,
      "儂": 3799,
      "億": 3800,
      "儉": 3801,
      "儊": 3802,
      "儒": 3803,
      "儚": 3804,
      "償": 3805,
      "優": 3806,
      "儲": 3807,
      "儿": 3808,
      "兀": 3809,
      "允": 3810,
      "元": 3811,
      "兄": 3812,
      "充": 3813,
      "兆": 3814,
      "先": 3815,
      "光": 3816,
      "克": 3817,
      "免": 3818,
      "兎": 3819,
      "児": 3820,
      "兒": 3821,
      "兔": 3822,
      "兖": 3823,
      "党": 3824,
      "兜": 3825,
      "入": 3826,
      "內": 3827,
      "全": 3828,
      "兩": 3829,
      "八": 3830,
      "公": 3831,
      "六": 3832,
      "兮": 3833,
      "兰": 3834,
      "共": 3835,
      "关": 3836,
      "兴": 3837,
      "兵": 3838,
      "其": 3839,
      "具": 3840,
      "典": 3841,
      "兹": 3842,
      "养": 3843,
      "兼": 3844,
      "兽": 3845,
      "冀": 3846,
      "内": 3847,
      "円": 3848,
      "冉": 3849,
      "冊": 3850,
      "册": 3851,
      "再": 3852,
      "冑": 3853,
      "冒": 3854,
      "冖": 3855,
      "写": 3856,
      "军": 3857,
      "农": 3858,
      "冠": 3859,
      "冢": 3860,
      "冥": 3861,
      "冨": 3862,
      "冫": 3863,
      "冬": 3864,
      "冰": 3865,
      "冲": 3866,
      "决": 3867,
      "况": 3868,
      "冶": 3869,
      "冷": 3870,
      "冼": 3871,
      "净": 3872,
      "凄": 3873,
      "准": 3874,
      "凉": 3875,
      "凌": 3876,
      "减": 3877,
      "凛": 3878,
      "几": 3879,
      "凡": 3880,
      "凤": 3881,
      "処": 3882,
      "凧": 3883,
      "凯": 3884,
      "凰": 3885,
      "凱": 3886,
      "凶": 3887,
      "凸": 3888,
      "凹": 3889,
      "出": 3890,
      "击": 3891,
      "凼": 3892,
      "函": 3893,
      "刀": 3894,
      "刂": 3895,
      "刃": 3896,
      "分": 3897,
      "切": 3898,
      "刈": 3899,
      "刊": 3900,
      "刑": 3901,
      "划": 3902,
      "列": 3903,
      "刘": 3904,
      "则": 3905,
      "刚": 3906,
      "创": 3907,
      "初": 3908,
      "删": 3909,
      "判": 3910,
      "別": 3911,
      "利": 3912,
      "刪": 3913,
      "别": 3914,
      "刮": 3915,
      "到": 3916,
      "制": 3917,
      "刷": 3918,
      "券": 3919,
      "刹": 3920,
      "刺": 3921,
      "刻": 3922,
      "則": 3923,
      "削": 3924,
      "剌": 3925,
      "前": 3926,
      "剑": 3927,
      "剛": 3928,
      "剣": 3929,
      "剤": 3930,
      "剥": 3931,
      "剧": 3932,
      "剩": 3933,
      "剪": 3934,
      "副": 3935,
      "剰": 3936,
      "割": 3937,
      "創": 3938,
      "劃": 3939,
      "劇": 3940,
      "劉": 3941,
      "劍": 3942,
      "劑": 3943,
      "力": 3944,
      "劝": 3945,
      "办": 3946,
      "功": 3947,
      "加": 3948,
      "务": 3949,
      "动": 3950,
      "助": 3951,
      "努": 3952,
      "励": 3953,
      "劳": 3954,
      "効": 3955,
      "势": 3956,
      "勁": 3957,
      "勅": 3958,
      "勇": 3959,
      "勉": 3960,
      "勋": 3961,
      "勐": 3962,
      "勒": 3963,
      "動": 3964,
      "勗": 3965,
      "勘": 3966,
      "務": 3967,
      "勛": 3968,
      "勝": 3969,
      "勞": 3970,
      "募": 3971,
      "勢": 3972,
      "勤": 3973,
      "勰": 3974,
      "勳": 3975,
      "勸": 3976,
      "勹": 3977,
      "勾": 3978,
      "勿": 3979,
      "匂": 3980,
      "包": 3981,
      "匈": 3982,
      "化": 3983,
      "北": 3984,
      "匠": 3985,
      "匯": 3986,
      "匹": 3987,
      "区": 3988,
      "医": 3989,
      "匿": 3990,
      "區": 3991,
      "十": 3992,
      "千": 3993,
      "卅": 3994,
      "升": 3995,
      "午": 3996,
      "半": 3997,
      "卍": 3998,
      "华": 3999,
      "协": 4000,
      "卐": 4001,
      "卑": 4002,
      "卒": 4003,
      "卓": 4004,
      "協": 4005,
      "单": 4006,
      "卖": 4007,
      "南": 4008,
      "単": 4009,
      "博": 4010,
      "卜": 4011,
      "占": 4012,
      "卡": 4013,
      "卢": 4014,
      "卦": 4015,
      "卧": 4016,
      "卫": 4017,
      "卯": 4018,
      "印": 4019,
      "危": 4020,
      "即": 4021,
      "却": 4022,
      "卵": 4023,
      "卷": 4024,
      "卹": 4025,
      "卿": 4026,
      "厂": 4027,
      "厅": 4028,
      "历": 4029,
      "厉": 4030,
      "压": 4031,
      "厌": 4032,
      "厔": 4033,
      "厕": 4034,
      "厖": 4035,
      "厘": 4036,
      "厚": 4037,
      "厝": 4038,
      "原": 4039,
      "厦": 4040,
      "厨": 4041,
      "厭": 4042,
      "厳": 4043,
      "去": 4044,
      "县": 4045,
      "参": 4046,
      "參": 4047,
      "又": 4048,
      "叉": 4049,
      "及": 4050,
      "友": 4051,
      "双": 4052,
      "反": 4053,
      "収": 4054,
      "发": 4055,
      "叔": 4056,
      "取": 4057,
      "受": 4058,
      "变": 4059,
      "叙": 4060,
      "叠": 4061,
      "叢": 4062,
      "口": 4063,
      "古": 4064,
      "句": 4065,
      "另": 4066,
      "叨": 4067,
      "只": 4068,
      "叫": 4069,
      "召": 4070,
      "可": 4071,
      "台": 4072,
      "史": 4073,
      "右": 4074,
      "叶": 4075,
      "号": 4076,
      "司": 4077,
      "吃": 4078,
      "各": 4079,
      "合": 4080,
      "吉": 4081,
      "吊": 4082,
      "同": 4083,
      "名": 4084,
      "后": 4085,
      "吏": 4086,
      "吐": 4087,
      "向": 4088,
      "吒": 4089,
      "吓": 4090,
      "吕": 4091,
      "吗": 4092,
      "君": 4093,
      "否": 4094,
      "吧": 4095,
      "含": 4096,
      "听": 4097,
      "启": 4098,
      "吰": 4099,
      "吳": 4100,
      "吴": 4101,
      "吵": 4102,
      "吶": 4103,
      "吸": 4104,
      "吹": 4105,
      "吻": 4106,
      "吾": 4107,
      "呀": 4108,
      "呂": 4109,
      "呆": 4110,
      "呈": 4111,
      "呉": 4112,
      "告": 4113,
      "呌": 4114,
      "员": 4115,
      "呜": 4116,
      "呢": 4117,
      "呦": 4118,
      "周": 4119,
      "呪": 4120,
      "呭": 4121,
      "味": 4122,
      "呵": 4123,
      "呼": 4124,
      "命": 4125,
      "咋": 4126,
      "和": 4127,
      "咏": 4128,
      "咒": 4129,
      "咕": 4130,
      "咖": 4131,
      "咗": 4132,
      "咙": 4133,
      "咦": 4134,
      "咨": 4135,
      "咪": 4136,
      "咫": 4137,
      "咬": 4138,
      "咯": 4139,
      "咱": 4140,
      "咲": 4141,
      "咸": 4142,
      "哀": 4143,
      "品": 4144,
      "哇": 4145,
      "哈": 4146,
      "哉": 4147,
      "响": 4148,
      "哎": 4149,
      "哒": 4150,
      "哟": 4151,
      "員": 4152,
      "哥": 4153,
      "哦": 4154,
      "哨": 4155,
      "哩": 4156,
      "哪": 4157,
      "哭": 4158,
      "哲": 4159,
      "哼": 4160,
      "唄": 4161,
      "唆": 4162,
      "唉": 4163,
      "唐": 4164,
      "唠": 4165,
      "唤": 4166,
      "售": 4167,
      "唯": 4168,
      "唱": 4169,
      "商": 4170,
      "啊": 4171,
      "問": 4172,
      "啓": 4173,
      "啟": 4174,
      "啡": 4175,
      "啤": 4176,
      "啰": 4177,
      "啵": 4178,
      "啸": 4179,
      "啼": 4180,
      "善": 4181,
      "喇": 4182,
      "喉": 4183,
      "喜": 4184,
      "喝": 4185,
      "喪": 4186,
      "喫": 4187,
      "喬": 4188,
      "單": 4189,
      "喰": 4190,
      "喱": 4191,
      "営": 4192,
      "喷": 4193,
      "喾": 4194,
      "嗎": 4195,
      "嗜": 4196,
      "嗣": 4197,
      "嗩": 4198,
      "嘀": 4199,
      "嘆": 4200,
      "嘉": 4201,
      "嘎": 4202,
      "嘗": 4203,
      "嘘": 4204,
      "嘛": 4205,
      "嘯": 4206,
      "嘴": 4207,
      "噌": 4208,
      "噜": 4209,
      "器": 4210,
      "噪": 4211,
      "噺": 4212,
      "噻": 4213,
      "嚇": 4214,
      "嚈": 4215,
      "嚮": 4216,
      "嚴": 4217,
      "嚼": 4218,
      "囃": 4219,
      "囊": 4220,
      "囍": 4221,
      "囚": 4222,
      "四": 4223,
      "回": 4224,
      "因": 4225,
      "囡": 4226,
      "团": 4227,
      "団": 4228,
      "园": 4229,
      "困": 4230,
      "囱": 4231,
      "囲": 4232,
      "図": 4233,
      "围": 4234,
      "固": 4235,
      "国": 4236,
      "图": 4237,
      "圃": 4238,
      "圄": 4239,
      "圆": 4240,
      "國": 4241,
      "圍": 4242,
      "園": 4243,
      "圓": 4244,
      "圖": 4245,
      "團": 4246,
      "圜": 4247,
      "土": 4248,
      "圣": 4249,
      "在": 4250,
      "圭": 4251,
      "地": 4252,
      "圳": 4253,
      "场": 4254,
      "圾": 4255,
      "址": 4256,
      "坂": 4257,
      "均": 4258,
      "坊": 4259,
      "坎": 4260,
      "坏": 4261,
      "坐": 4262,
      "坑": 4263,
      "块": 4264,
      "坚": 4265,
      "坛": 4266,
      "坝": 4267,
      "坡": 4268,
      "坤": 4269,
      "坦": 4270,
      "坪": 4271,
      "坵": 4272,
      "垂": 4273,
      "垃": 4274,
      "型": 4275,
      "垒": 4276,
      "垣": 4277,
      "垤": 4278,
      "垦": 4279,
      "垫": 4280,
      "埃": 4281,
      "埋": 4282,
      "城": 4283,
      "埔": 4284,
      "埜": 4285,
      "域": 4286,
      "執": 4287,
      "培": 4288,
      "基": 4289,
      "堀": 4290,
      "堂": 4291,
      "堅": 4292,
      "堆": 4293,
      "堉": 4294,
      "堕": 4295,
      "堡": 4296,
      "堤": 4297,
      "堰": 4298,
      "報": 4299,
      "場": 4300,
      "堵": 4301,
      "塊": 4302,
      "塌": 4303,
      "塑": 4304,
      "塔": 4305,
      "塗": 4306,
      "塘": 4307,
      "塚": 4308,
      "塞": 4309,
      "塩": 4310,
      "填": 4311,
      "塵": 4312,
      "塾": 4313,
      "境": 4314,
      "墅": 4315,
      "墓": 4316,
      "増": 4317,
      "墙": 4318,
      "墜": 4319,
      "增": 4320,
      "墨": 4321,
      "墳": 4322,
      "墾": 4323,
      "壁": 4324,
      "壊": 4325,
      "壓": 4326,
      "壞": 4327,
      "士": 4328,
      "壮": 4329,
      "壯": 4330,
      "声": 4331,
      "壱": 4332,
      "売": 4333,
      "壶": 4334,
      "壷": 4335,
      "壺": 4336,
      "壽": 4337,
      "夂": 4338,
      "处": 4339,
      "备": 4340,
      "変": 4341,
      "复": 4342,
      "夏": 4343,
      "夔": 4344,
      "夕": 4345,
      "外": 4346,
      "多": 4347,
      "夜": 4348,
      "够": 4349,
      "夢": 4350,
      "大": 4351,
      "天": 4352,
      "太": 4353,
      "夫": 4354,
      "央": 4355,
      "失": 4356,
      "头": 4357,
      "夷": 4358,
      "夸": 4359,
      "夹": 4360,
      "夾": 4361,
      "奄": 4362,
      "奇": 4363,
      "奈": 4364,
      "奉": 4365,
      "奋": 4366,
      "奎": 4367,
      "奏": 4368,
      "奐": 4369,
      "契": 4370,
      "奔": 4371,
      "奕": 4372,
      "奖": 4373,
      "套": 4374,
      "奘": 4375,
      "奚": 4376,
      "奠": 4377,
      "奥": 4378,
      "奧": 4379,
      "奪": 4380,
      "奮": 4381,
      "女": 4382,
      "奴": 4383,
      "奶": 4384,
      "奸": 4385,
      "她": 4386,
      "好": 4387,
      "如": 4388,
      "妃": 4389,
      "妄": 4390,
      "妆": 4391,
      "妇": 4392,
      "妈": 4393,
      "妍": 4394,
      "妓": 4395,
      "妖": 4396,
      "妘": 4397,
      "妙": 4398,
      "妹": 4399,
      "妻": 4400,
      "姆": 4401,
      "姉": 4402,
      "始": 4403,
      "姐": 4404,
      "姑": 4405,
      "姒": 4406,
      "姓": 4407,
      "委": 4408,
      "姚": 4409,
      "姜": 4410,
      "姥": 4411,
      "姦": 4412,
      "姨": 4413,
      "姫": 4414,
      "姬": 4415,
      "姿": 4416,
      "威": 4417,
      "娃": 4418,
      "娅": 4419,
      "娌": 4420,
      "娘": 4421,
      "娛": 4422,
      "娜": 4423,
      "娟": 4424,
      "娡": 4425,
      "娣": 4426,
      "娥": 4427,
      "娱": 4428,
      "婆": 4429,
      "婉": 4430,
      "婚": 4431,
      "婢": 4432,
      "婦": 4433,
      "婴": 4434,
      "婷": 4435,
      "婺": 4436,
      "媛": 4437,
      "媧": 4438,
      "媯": 4439,
      "媽": 4440,
      "嫁": 4441,
      "嫂": 4442,
      "嫄": 4443,
      "嫉": 4444,
      "嫡": 4445,
      "嫦": 4446,
      "嫮": 4447,
      "嬢": 4448,
      "嬪": 4449,
      "嬰": 4450,
      "嬲": 4451,
      "嬴": 4452,
      "子": 4453,
      "孔": 4454,
      "孕": 4455,
      "字": 4456,
      "存": 4457,
      "孙": 4458,
      "孚": 4459,
      "孛": 4460,
      "孝": 4461,
      "孟": 4462,
      "季": 4463,
      "孤": 4464,
      "学": 4465,
      "孩": 4466,
      "孫": 4467,
      "學": 4468,
      "宀": 4469,
      "宁": 4470,
      "它": 4471,
      "宅": 4472,
      "宇": 4473,
      "守": 4474,
      "安": 4475,
      "宋": 4476,
      "完": 4477,
      "宏": 4478,
      "宗": 4479,
      "官": 4480,
      "宙": 4481,
      "定": 4482,
      "宛": 4483,
      "宜": 4484,
      "宝": 4485,
      "实": 4486,
      "実": 4487,
      "审": 4488,
      "客": 4489,
      "宣": 4490,
      "室": 4491,
      "宫": 4492,
      "宮": 4493,
      "宰": 4494,
      "害": 4495,
      "宴": 4496,
      "宵": 4497,
      "家": 4498,
      "容": 4499,
      "宽": 4500,
      "宾": 4501,
      "宿": 4502,
      "寂": 4503,
      "寄": 4504,
      "寅": 4505,
      "密": 4506,
      "寇": 4507,
      "富": 4508,
      "寒": 4509,
      "寛": 4510,
      "寝": 4511,
      "寞": 4512,
      "察": 4513,
      "寢": 4514,
      "實": 4515,
      "寧": 4516,
      "寨": 4517,
      "審": 4518,
      "寫": 4519,
      "寬": 4520,
      "寮": 4521,
      "寳": 4522,
      "寶": 4523,
      "寸": 4524,
      "对": 4525,
      "寺": 4526,
      "寻": 4527,
      "导": 4528,
      "対": 4529,
      "寿": 4530,
      "封": 4531,
      "専": 4532,
      "射": 4533,
      "将": 4534,
      "將": 4535,
      "專": 4536,
      "尉": 4537,
      "尊": 4538,
      "尋": 4539,
      "對": 4540,
      "導": 4541,
      "小": 4542,
      "少": 4543,
      "尔": 4544,
      "尖": 4545,
      "尘": 4546,
      "尙": 4547,
      "尚": 4548,
      "尝": 4549,
      "尤": 4550,
      "尧": 4551,
      "就": 4552,
      "尸": 4553,
      "尹": 4554,
      "尺": 4555,
      "尼": 4556,
      "尽": 4557,
      "尾": 4558,
      "局": 4559,
      "层": 4560,
      "居": 4561,
      "屆": 4562,
      "屈": 4563,
      "屉": 4564,
      "届": 4565,
      "屋": 4566,
      "屍": 4567,
      "屏": 4568,
      "展": 4569,
      "属": 4570,
      "屠": 4571,
      "屢": 4572,
      "層": 4573,
      "履": 4574,
      "屬": 4575,
      "山": 4576,
      "屿": 4577,
      "岁": 4578,
      "岐": 4579,
      "岑": 4580,
      "岔": 4581,
      "岗": 4582,
      "岛": 4583,
      "岡": 4584,
      "岩": 4585,
      "岬": 4586,
      "岭": 4587,
      "岳": 4588,
      "岸": 4589,
      "峇": 4590,
      "峑": 4591,
      "峠": 4592,
      "峡": 4593,
      "峨": 4594,
      "峪": 4595,
      "峯": 4596,
      "峰": 4597,
      "島": 4598,
      "峻": 4599,
      "崀": 4600,
      "崇": 4601,
      "崍": 4602,
      "崎": 4603,
      "崑": 4604,
      "崔": 4605,
      "崙": 4606,
      "崛": 4607,
      "崢": 4608,
      "崧": 4609,
      "崩": 4610,
      "嵋": 4611,
      "嵌": 4612,
      "嵐": 4613,
      "嵩": 4614,
      "嵯": 4615,
      "嶂": 4616,
      "嶋": 4617,
      "嶲": 4618,
      "嶺": 4619,
      "嶼": 4620,
      "巂": 4621,
      "巅": 4622,
      "巌": 4623,
      "巖": 4624,
      "川": 4625,
      "州": 4626,
      "巡": 4627,
      "巣": 4628,
      "工": 4629,
      "左": 4630,
      "巧": 4631,
      "巨": 4632,
      "巫": 4633,
      "差": 4634,
      "己": 4635,
      "已": 4636,
      "巳": 4637,
      "巴": 4638,
      "巷": 4639,
      "巻": 4640,
      "巽": 4641,
      "巾": 4642,
      "币": 4643,
      "市": 4644,
      "布": 4645,
      "帅": 4646,
      "帆": 4647,
      "师": 4648,
      "希": 4649,
      "帐": 4650,
      "帕": 4651,
      "帖": 4652,
      "帝": 4653,
      "帥": 4654,
      "带": 4655,
      "帧": 4656,
      "師": 4657,
      "席": 4658,
      "帮": 4659,
      "帯": 4660,
      "帰": 4661,
      "帳": 4662,
      "帶": 4663,
      "常": 4664,
      "帽": 4665,
      "幅": 4666,
      "幌": 4667,
      "幕": 4668,
      "幞": 4669,
      "幟": 4670,
      "幡": 4671,
      "幢": 4672,
      "幣": 4673,
      "干": 4674,
      "平": 4675,
      "年": 4676,
      "并": 4677,
      "幸": 4678,
      "幹": 4679,
      "幻": 4680,
      "幼": 4681,
      "幽": 4682,
      "幾": 4683,
      "广": 4684,
      "庁": 4685,
      "広": 4686,
      "庄": 4687,
      "庆": 4688,
      "床": 4689,
      "序": 4690,
      "库": 4691,
      "应": 4692,
      "底": 4693,
      "店": 4694,
      "庙": 4695,
      "庚": 4696,
      "府": 4697,
      "废": 4698,
      "度": 4699,
      "座": 4700,
      "庫": 4701,
      "庭": 4702,
      "庵": 4703,
      "庶": 4704,
      "康": 4705,
      "庸": 4706,
      "庹": 4707,
      "庾": 4708,
      "廃": 4709,
      "廈": 4710,
      "廉": 4711,
      "廊": 4712,
      "廖": 4713,
      "廟": 4714,
      "廠": 4715,
      "廣": 4716,
      "廬": 4717,
      "廳": 4718,
      "廴": 4719,
      "延": 4720,
      "廷": 4721,
      "建": 4722,
      "廻": 4723,
      "开": 4724,
      "弁": 4725,
      "异": 4726,
      "弄": 4727,
      "弈": 4728,
      "弉": 4729,
      "弊": 4730,
      "弌": 4731,
      "式": 4732,
      "弐": 4733,
      "弓": 4734,
      "引": 4735,
      "弘": 4736,
      "弛": 4737,
      "弟": 4738,
      "张": 4739,
      "弥": 4740,
      "弩": 4741,
      "弭": 4742,
      "弯": 4743,
      "弱": 4744,
      "張": 4745,
      "強": 4746,
      "弹": 4747,
      "强": 4748,
      "弼": 4749,
      "弾": 4750,
      "彈": 4751,
      "彊": 4752,
      "彌": 4753,
      "归": 4754,
      "当": 4755,
      "录": 4756,
      "彝": 4757,
      "彡": 4758,
      "形": 4759,
      "彤": 4760,
      "彥": 4761,
      "彦": 4762,
      "彩": 4763,
      "彪": 4764,
      "彫": 4765,
      "彭": 4766,
      "彰": 4767,
      "影": 4768,
      "彳": 4769,
      "彷": 4770,
      "役": 4771,
      "彻": 4772,
      "彼": 4773,
      "往": 4774,
      "征": 4775,
      "径": 4776,
      "待": 4777,
      "很": 4778,
      "律": 4779,
      "後": 4780,
      "徐": 4781,
      "徒": 4782,
      "従": 4783,
      "得": 4784,
      "從": 4785,
      "御": 4786,
      "徨": 4787,
      "復": 4788,
      "循": 4789,
      "微": 4790,
      "徳": 4791,
      "徵": 4792,
      "德": 4793,
      "徹": 4794,
      "徽": 4795,
      "心": 4796,
      "必": 4797,
      "忆": 4798,
      "忌": 4799,
      "忍": 4800,
      "忒": 4801,
      "志": 4802,
      "忘": 4803,
      "忙": 4804,
      "応": 4805,
      "忠": 4806,
      "快": 4807,
      "念": 4808,
      "忽": 4809,
      "怀": 4810,
      "态": 4811,
      "怎": 4812,
      "怒": 4813,
      "怕": 4814,
      "怖": 4815,
      "怜": 4816,
      "思": 4817,
      "怠": 4818,
      "怡": 4819,
      "急": 4820,
      "性": 4821,
      "怨": 4822,
      "怪": 4823,
      "总": 4824,
      "恂": 4825,
      "恆": 4826,
      "恋": 4827,
      "恐": 4828,
      "恒": 4829,
      "恕": 4830,
      "恢": 4831,
      "恨": 4832,
      "恩": 4833,
      "恪": 4834,
      "恭": 4835,
      "息": 4836,
      "恵": 4837,
      "恶": 4838,
      "恺": 4839,
      "恼": 4840,
      "悅": 4841,
      "悍": 4842,
      "悚": 4843,
      "悟": 4844,
      "悠": 4845,
      "悦": 4846,
      "您": 4847,
      "悩": 4848,
      "悪": 4849,
      "悬": 4850,
      "悲": 4851,
      "悼": 4852,
      "情": 4853,
      "惊": 4854,
      "惑": 4855,
      "惜": 4856,
      "惠": 4857,
      "惡": 4858,
      "惣": 4859,
      "惯": 4860,
      "想": 4861,
      "惺": 4862,
      "愈": 4863,
      "愉": 4864,
      "愍": 4865,
      "意": 4866,
      "愛": 4867,
      "感": 4868,
      "愠": 4869,
      "愤": 4870,
      "愼": 4871,
      "愿": 4872,
      "慈": 4873,
      "態": 4874,
      "慌": 4875,
      "慎": 4876,
      "慕": 4877,
      "慟": 4878,
      "慢": 4879,
      "慣": 4880,
      "慧": 4881,
      "慰": 4882,
      "慶": 4883,
      "慾": 4884,
      "憂": 4885,
      "憇": 4886,
      "憐": 4887,
      "憚": 4888,
      "憤": 4889,
      "憫": 4890,
      "憲": 4891,
      "憶": 4892,
      "憺": 4893,
      "懂": 4894,
      "應": 4895,
      "懋": 4896,
      "懐": 4897,
      "懒": 4898,
      "懲": 4899,
      "懷": 4900,
      "懽": 4901,
      "懿": 4902,
      "戀": 4903,
      "戌": 4904,
      "戍": 4905,
      "戎": 4906,
      "戏": 4907,
      "成": 4908,
      "我": 4909,
      "戒": 4910,
      "或": 4911,
      "战": 4912,
      "戚": 4913,
      "戛": 4914,
      "戦": 4915,
      "戯": 4916,
      "戰": 4917,
      "戲": 4918,
      "戴": 4919,
      "戶": 4920,
      "户": 4921,
      "戸": 4922,
      "戻": 4923,
      "房": 4924,
      "所": 4925,
      "扁": 4926,
      "扇": 4927,
      "扉": 4928,
      "手": 4929,
      "扌": 4930,
      "才": 4931,
      "扎": 4932,
      "打": 4933,
      "扔": 4934,
      "托": 4935,
      "扛": 4936,
      "扜": 4937,
      "执": 4938,
      "扩": 4939,
      "扫": 4940,
      "扬": 4941,
      "扭": 4942,
      "扶": 4943,
      "批": 4944,
      "找": 4945,
      "承": 4946,
      "技": 4947,
      "抄": 4948,
      "把": 4949,
      "抑": 4950,
      "抓": 4951,
      "投": 4952,
      "抗": 4953,
      "折": 4954,
      "抚": 4955,
      "抜": 4956,
      "护": 4957,
      "报": 4958,
      "披": 4959,
      "抱": 4960,
      "抵": 4961,
      "抹": 4962,
      "抺": 4963,
      "押": 4964,
      "抽": 4965,
      "拂": 4966,
      "担": 4967,
      "拉": 4968,
      "拌": 4969,
      "拍": 4970,
      "拏": 4971,
      "拐": 4972,
      "拓": 4973,
      "拔": 4974,
      "招": 4975,
      "拜": 4976,
      "拝": 4977,
      "拠": 4978,
      "拣": 4979,
      "拦": 4980,
      "拨": 4981,
      "择": 4982,
      "括": 4983,
      "拱": 4984,
      "拳": 4985,
      "拶": 4986,
      "拼": 4987,
      "拾": 4988,
      "拿": 4989,
      "持": 4990,
      "挂": 4991,
      "指": 4992,
      "按": 4993,
      "挑": 4994,
      "挖": 4995,
      "挛": 4996,
      "挡": 4997,
      "挣": 4998,
      "挤": 4999,
      "挨": 5000,
      "振": 5001,
      "挱": 5002,
      "挺": 5003,
      "捉": 5004,
      "捕": 5005,
      "捜": 5006,
      "损": 5007,
      "换": 5008,
      "捧": 5009,
      "捨": 5010,
      "捭": 5011,
      "据": 5012,
      "捲": 5013,
      "捷": 5014,
      "捺": 5015,
      "授": 5016,
      "掉": 5017,
      "掌": 5018,
      "排": 5019,
      "掖": 5020,
      "掘": 5021,
      "掛": 5022,
      "採": 5023,
      "探": 5024,
      "接": 5025,
      "控": 5026,
      "推": 5027,
      "掲": 5028,
      "揉": 5029,
      "描": 5030,
      "提": 5031,
      "插": 5032,
      "揚": 5033,
      "換": 5034,
      "握": 5035,
      "揮": 5036,
      "援": 5037,
      "損": 5038,
      "搓": 5039,
      "搜": 5040,
      "搬": 5041,
      "搵": 5042,
      "搿": 5043,
      "摂": 5044,
      "摄": 5045,
      "摆": 5046,
      "摊": 5047,
      "摔": 5048,
      "摘": 5049,
      "摩": 5050,
      "摸": 5051,
      "摺": 5052,
      "撃": 5053,
      "撑": 5054,
      "撒": 5055,
      "撞": 5056,
      "撤": 5057,
      "撥": 5058,
      "撫": 5059,
      "播": 5060,
      "撮": 5061,
      "撰": 5062,
      "撲": 5063,
      "擁": 5064,
      "擇": 5065,
      "擊": 5066,
      "操": 5067,
      "擎": 5068,
      "擒": 5069,
      "據": 5070,
      "擦": 5071,
      "擬": 5072,
      "擴": 5073,
      "攊": 5074,
      "攘": 5075,
      "攝": 5076,
      "攣": 5077,
      "攪": 5078,
      "支": 5079,
      "攵": 5080,
      "收": 5081,
      "改": 5082,
      "攻": 5083,
      "放": 5084,
      "政": 5085,
      "故": 5086,
      "效": 5087,
      "敍": 5088,
      "敎": 5089,
      "敏": 5090,
      "救": 5091,
      "敕": 5092,
      "敗": 5093,
      "敘": 5094,
      "教": 5095,
      "敢": 5096,
      "散": 5097,
      "敦": 5098,
      "敬": 5099,
      "数": 5100,
      "敲": 5101,
      "整": 5102,
      "敵": 5103,
      "敷": 5104,
      "數": 5105,
      "斃": 5106,
      "文": 5107,
      "斌": 5108,
      "斎": 5109,
      "斐": 5110,
      "斑": 5111,
      "斗": 5112,
      "料": 5113,
      "斜": 5114,
      "斤": 5115,
      "斩": 5116,
      "斬": 5117,
      "断": 5118,
      "斯": 5119,
      "新": 5120,
      "斷": 5121,
      "方": 5122,
      "於": 5123,
      "施": 5124,
      "旁": 5125,
      "旃": 5126,
      "旅": 5127,
      "旋": 5128,
      "旌": 5129,
      "族": 5130,
      "旗": 5131,
      "旛": 5132,
      "无": 5133,
      "既": 5134,
      "日": 5135,
      "旦": 5136,
      "旧": 5137,
      "旨": 5138,
      "早": 5139,
      "旬": 5140,
      "旭": 5141,
      "旱": 5142,
      "时": 5143,
      "旺": 5144,
      "旻": 5145,
      "昂": 5146,
      "昆": 5147,
      "昇": 5148,
      "昊": 5149,
      "昌": 5150,
      "明": 5151,
      "昏": 5152,
      "易": 5153,
      "昔": 5154,
      "星": 5155,
      "映": 5156,
      "春": 5157,
      "昧": 5158,
      "昨": 5159,
      "昭": 5160,
      "是": 5161,
      "昵": 5162,
      "昶": 5163,
      "显": 5164,
      "晁": 5165,
      "時": 5166,
      "晃": 5167,
      "晉": 5168,
      "晋": 5169,
      "晏": 5170,
      "晒": 5171,
      "晓": 5172,
      "晔": 5173,
      "晖": 5174,
      "晙": 5175,
      "晚": 5176,
      "晡": 5177,
      "晦": 5178,
      "晨": 5179,
      "晬": 5180,
      "普": 5181,
      "景": 5182,
      "晴": 5183,
      "晶": 5184,
      "智": 5185,
      "暁": 5186,
      "暂": 5187,
      "暇": 5188,
      "暈": 5189,
      "暉": 5190,
      "暎": 5191,
      "暖": 5192,
      "暗": 5193,
      "暤": 5194,
      "暦": 5195,
      "暨": 5196,
      "暫": 5197,
      "暮": 5198,
      "暴": 5199,
      "曄": 5200,
      "曆": 5201,
      "曇": 5202,
      "曉": 5203,
      "曖": 5204,
      "曜": 5205,
      "曝": 5206,
      "曦": 5207,
      "曲": 5208,
      "更": 5209,
      "書": 5210,
      "曹": 5211,
      "曺": 5212,
      "曼": 5213,
      "曽": 5214,
      "曾": 5215,
      "替": 5216,
      "最": 5217,
      "會": 5218,
      "月": 5219,
      "有": 5220,
      "朋": 5221,
      "服": 5222,
      "朏": 5223,
      "朐": 5224,
      "朔": 5225,
      "朗": 5226,
      "望": 5227,
      "朝": 5228,
      "期": 5229,
      "木": 5230,
      "未": 5231,
      "末": 5232,
      "本": 5233,
      "札": 5234,
      "朮": 5235,
      "术": 5236,
      "朱": 5237,
      "朴": 5238,
      "朵": 5239,
      "朶": 5240,
      "机": 5241,
      "朽": 5242,
      "杀": 5243,
      "杂": 5244,
      "权": 5245,
      "杉": 5246,
      "李": 5247,
      "杏": 5248,
      "材": 5249,
      "村": 5250,
      "杜": 5251,
      "杞": 5252,
      "束": 5253,
      "杠": 5254,
      "条": 5255,
      "来": 5256,
      "杨": 5257,
      "杭": 5258,
      "杯": 5259,
      "杰": 5260,
      "東": 5261,
      "杵": 5262,
      "松": 5263,
      "板": 5264,
      "极": 5265,
      "构": 5266,
      "析": 5267,
      "枕": 5268,
      "林": 5269,
      "枚": 5270,
      "果": 5271,
      "枝": 5272,
      "枣": 5273,
      "枧": 5274,
      "枪": 5275,
      "枫": 5276,
      "枯": 5277,
      "架": 5278,
      "枹": 5279,
      "柄": 5280,
      "柊": 5281,
      "柏": 5282,
      "某": 5283,
      "柑": 5284,
      "染": 5285,
      "柔": 5286,
      "柚": 5287,
      "柜": 5288,
      "柠": 5289,
      "查": 5290,
      "柩": 5291,
      "柯": 5292,
      "柱": 5293,
      "柳": 5294,
      "柴": 5295,
      "査": 5296,
      "栃": 5297,
      "栄": 5298,
      "标": 5299,
      "栋": 5300,
      "栏": 5301,
      "树": 5302,
      "栓": 5303,
      "栖": 5304,
      "栗": 5305,
      "栞": 5306,
      "校": 5307,
      "株": 5308,
      "样": 5309,
      "核": 5310,
      "根": 5311,
      "格": 5312,
      "栽": 5313,
      "桁": 5314,
      "桂": 5315,
      "桃": 5316,
      "案": 5317,
      "桌": 5318,
      "桐": 5319,
      "桑": 5320,
      "桓": 5321,
      "桜": 5322,
      "桢": 5323,
      "档": 5324,
      "桥": 5325,
      "桩": 5326,
      "桶": 5327,
      "梁": 5328,
      "梅": 5329,
      "梓": 5330,
      "條": 5331,
      "梟": 5332,
      "梠": 5333,
      "梦": 5334,
      "梨": 5335,
      "梭": 5336,
      "梯": 5337,
      "械": 5338,
      "梳": 5339,
      "梵": 5340,
      "梶": 5341,
      "检": 5342,
      "棄": 5343,
      "棉": 5344,
      "棊": 5345,
      "棍": 5346,
      "棒": 5347,
      "棕": 5348,
      "棗": 5349,
      "棘": 5350,
      "棚": 5351,
      "棟": 5352,
      "棠": 5353,
      "棣": 5354,
      "森": 5355,
      "棲": 5356,
      "棵": 5357,
      "棺": 5358,
      "椅": 5359,
      "植": 5360,
      "椎": 5361,
      "椒": 5362,
      "検": 5363,
      "椥": 5364,
      "椹": 5365,
      "椿": 5366,
      "楊": 5367,
      "楓": 5368,
      "楔": 5369,
      "楚": 5370,
      "楢": 5371,
      "楨": 5372,
      "楫": 5373,
      "業": 5374,
      "楳": 5375,
      "極": 5376,
      "楷": 5377,
      "楼": 5378,
      "楽": 5379,
      "概": 5380,
      "榆": 5381,
      "榈": 5382,
      "榊": 5383,
      "榔": 5384,
      "榛": 5385,
      "榭": 5386,
      "榮": 5387,
      "榴": 5388,
      "槇": 5389,
      "構": 5390,
      "槌": 5391,
      "槍": 5392,
      "槐": 5393,
      "様": 5394,
      "樂": 5395,
      "樊": 5396,
      "樋": 5397,
      "樑": 5398,
      "樓": 5399,
      "樗": 5400,
      "標": 5401,
      "樞": 5402,
      "樟": 5403,
      "模": 5404,
      "樣": 5405,
      "権": 5406,
      "横": 5407,
      "樹": 5408,
      "樺": 5409,
      "橋": 5410,
      "橘": 5411,
      "橙": 5412,
      "機": 5413,
      "橡": 5414,
      "橫": 5415,
      "檀": 5416,
      "檔": 5417,
      "檜": 5418,
      "檢": 5419,
      "檬": 5420,
      "檳": 5421,
      "櫚": 5422,
      "櫥": 5423,
      "櫻": 5424,
      "權": 5425,
      "欠": 5426,
      "次": 5427,
      "欢": 5428,
      "欣": 5429,
      "欧": 5430,
      "欲": 5431,
      "欺": 5432,
      "欽": 5433,
      "款": 5434,
      "歉": 5435,
      "歌": 5436,
      "歎": 5437,
      "歐": 5438,
      "歓": 5439,
      "歙": 5440,
      "歡": 5441,
      "止": 5442,
      "正": 5443,
      "此": 5444,
      "步": 5445,
      "武": 5446,
      "歧": 5447,
      "歩": 5448,
      "歯": 5449,
      "歲": 5450,
      "歳": 5451,
      "歴": 5452,
      "歷": 5453,
      "歸": 5454,
      "死": 5455,
      "殊": 5456,
      "残": 5457,
      "殖": 5458,
      "殭": 5459,
      "段": 5460,
      "殷": 5461,
      "殺": 5462,
      "殻": 5463,
      "殼": 5464,
      "殿": 5465,
      "毀": 5466,
      "毁": 5467,
      "毅": 5468,
      "毋": 5469,
      "母": 5470,
      "毎": 5471,
      "每": 5472,
      "毒": 5473,
      "毓": 5474,
      "比": 5475,
      "毕": 5476,
      "毘": 5477,
      "毛": 5478,
      "氏": 5479,
      "民": 5480,
      "气": 5481,
      "気": 5482,
      "氣": 5483,
      "水": 5484,
      "氵": 5485,
      "氷": 5486,
      "永": 5487,
      "氹": 5488,
      "氿": 5489,
      "汀": 5490,
      "汁": 5491,
      "求": 5492,
      "汇": 5493,
      "汉": 5494,
      "汎": 5495,
      "汗": 5496,
      "汝": 5497,
      "江": 5498,
      "池": 5499,
      "污": 5500,
      "汤": 5501,
      "汧": 5502,
      "汪": 5503,
      "汴": 5504,
      "汶": 5505,
      "決": 5506,
      "汽": 5507,
      "汾": 5508,
      "沈": 5509,
      "沉": 5510,
      "沌": 5511,
      "沐": 5512,
      "沒": 5513,
      "沖": 5514,
      "沘": 5515,
      "沙": 5516,
      "沟": 5517,
      "没": 5518,
      "沢": 5519,
      "沦": 5520,
      "沫": 5521,
      "河": 5522,
      "油": 5523,
      "治": 5524,
      "沼": 5525,
      "沿": 5526,
      "況": 5527,
      "泄": 5528,
      "泉": 5529,
      "泊": 5530,
      "泌": 5531,
      "泐": 5532,
      "法": 5533,
      "泗": 5534,
      "泡": 5535,
      "波": 5536,
      "泣": 5537,
      "泥": 5538,
      "注": 5539,
      "泪": 5540,
      "泫": 5541,
      "泰": 5542,
      "泱": 5543,
      "泳": 5544,
      "泸": 5545,
      "泼": 5546,
      "泽": 5547,
      "泾": 5548,
      "洁": 5549,
      "洊": 5550,
      "洋": 5551,
      "洒": 5552,
      "洗": 5553,
      "洛": 5554,
      "洞": 5555,
      "津": 5556,
      "洪": 5557,
      "洮": 5558,
      "洱": 5559,
      "洲": 5560,
      "洸": 5561,
      "洺": 5562,
      "活": 5563,
      "洼": 5564,
      "洽": 5565,
      "派": 5566,
      "流": 5567,
      "浄": 5568,
      "浅": 5569,
      "测": 5570,
      "济": 5571,
      "浏": 5572,
      "浙": 5573,
      "浚": 5574,
      "浜": 5575,
      "浦": 5576,
      "浩": 5577,
      "浪": 5578,
      "浮": 5579,
      "浴": 5580,
      "海": 5581,
      "浸": 5582,
      "涂": 5583,
      "消": 5584,
      "涉": 5585,
      "涙": 5586,
      "涛": 5587,
      "润": 5588,
      "涧": 5589,
      "涨": 5590,
      "涩": 5591,
      "涪": 5592,
      "涯": 5593,
      "液": 5594,
      "涵": 5595,
      "涼": 5596,
      "涿": 5597,
      "淇": 5598,
      "淋": 5599,
      "淑": 5600,
      "淘": 5601,
      "淚": 5602,
      "淡": 5603,
      "淨": 5604,
      "淫": 5605,
      "淮": 5606,
      "深": 5607,
      "淳": 5608,
      "淵": 5609,
      "混": 5610,
      "淸": 5611,
      "淹": 5612,
      "添": 5613,
      "清": 5614,
      "渇": 5615,
      "済": 5616,
      "渉": 5617,
      "渊": 5618,
      "渋": 5619,
      "渐": 5620,
      "渔": 5621,
      "渗": 5622,
      "減": 5623,
      "渝": 5624,
      "渠": 5625,
      "渡": 5626,
      "渤": 5627,
      "渥": 5628,
      "渦": 5629,
      "温": 5630,
      "測": 5631,
      "渭": 5632,
      "港": 5633,
      "渲": 5634,
      "渴": 5635,
      "游": 5636,
      "渾": 5637,
      "湃": 5638,
      "湊": 5639,
      "湖": 5640,
      "湘": 5641,
      "湛": 5642,
      "湯": 5643,
      "湾": 5644,
      "湿": 5645,
      "満": 5646,
      "溃": 5647,
      "源": 5648,
      "準": 5649,
      "溜": 5650,
      "溝": 5651,
      "溢": 5652,
      "溥": 5653,
      "溪": 5654,
      "溫": 5655,
      "溶": 5656,
      "滁": 5657,
      "滅": 5658,
      "滇": 5659,
      "滋": 5660,
      "滑": 5661,
      "滔": 5662,
      "滕": 5663,
      "滚": 5664,
      "滝": 5665,
      "满": 5666,
      "滨": 5667,
      "滩": 5668,
      "滬": 5669,
      "滱": 5670,
      "滴": 5671,
      "滷": 5672,
      "滿": 5673,
      "漁": 5674,
      "漂": 5675,
      "漆": 5676,
      "演": 5677,
      "漠": 5678,
      "漢": 5679,
      "漩": 5680,
      "漫": 5681,
      "漬": 5682,
      "漸": 5683,
      "漾": 5684,
      "漿": 5685,
      "潁": 5686,
      "潔": 5687,
      "潘": 5688,
      "潛": 5689,
      "潜": 5690,
      "潞": 5691,
      "潤": 5692,
      "潭": 5693,
      "潮": 5694,
      "潰": 5695,
      "澀": 5696,
      "澄": 5697,
      "澈": 5698,
      "澎": 5699,
      "澗": 5700,
      "澜": 5701,
      "澞": 5702,
      "澡": 5703,
      "澤": 5704,
      "澧": 5705,
      "澳": 5706,
      "澶": 5707,
      "激": 5708,
      "濃": 5709,
      "濆": 5710,
      "濕": 5711,
      "濟": 5712,
      "濠": 5713,
      "濤": 5714,
      "濫": 5715,
      "濬": 5716,
      "濮": 5717,
      "濱": 5718,
      "濵": 5719,
      "瀆": 5720,
      "瀛": 5721,
      "瀬": 5722,
      "灘": 5723,
      "灣": 5724,
      "火": 5725,
      "灬": 5726,
      "灭": 5727,
      "灯": 5728,
      "灰": 5729,
      "灵": 5730,
      "灶": 5731,
      "灸": 5732,
      "災": 5733,
      "灾": 5734,
      "炉": 5735,
      "炎": 5736,
      "炜": 5737,
      "炫": 5738,
      "炮": 5739,
      "点": 5740,
      "為": 5741,
      "炻": 5742,
      "炽": 5743,
      "烈": 5744,
      "烏": 5745,
      "烘": 5746,
      "烟": 5747,
      "烤": 5748,
      "烦": 5749,
      "烧": 5750,
      "烨": 5751,
      "热": 5752,
      "焊": 5753,
      "焔": 5754,
      "焗": 5755,
      "無": 5756,
      "焦": 5757,
      "焰": 5758,
      "然": 5759,
      "焼": 5760,
      "煌": 5761,
      "煎": 5762,
      "煕": 5763,
      "煖": 5764,
      "煙": 5765,
      "煜": 5766,
      "煦": 5767,
      "照": 5768,
      "煮": 5769,
      "熇": 5770,
      "熈": 5771,
      "熊": 5772,
      "熙": 5773,
      "熟": 5774,
      "熱": 5775,
      "熹": 5776,
      "燁": 5777,
      "燃": 5778,
      "燇": 5779,
      "燈": 5780,
      "燊": 5781,
      "燎": 5782,
      "燒": 5783,
      "燕": 5784,
      "燚": 5785,
      "營": 5786,
      "燥": 5787,
      "燮": 5788,
      "爆": 5789,
      "爐": 5790,
      "爛": 5791,
      "爬": 5792,
      "爭": 5793,
      "爰": 5794,
      "爱": 5795,
      "爵": 5796,
      "父": 5797,
      "爷": 5798,
      "爸": 5799,
      "爺": 5800,
      "爽": 5801,
      "爾": 5802,
      "爿": 5803,
      "牆": 5804,
      "片": 5805,
      "版": 5806,
      "牌": 5807,
      "牙": 5808,
      "牛": 5809,
      "牟": 5810,
      "牡": 5811,
      "牧": 5812,
      "物": 5813,
      "牲": 5814,
      "特": 5815,
      "牺": 5816,
      "犀": 5817,
      "犍": 5818,
      "犬": 5819,
      "犭": 5820,
      "犯": 5821,
      "状": 5822,
      "狀": 5823,
      "狂": 5824,
      "狄": 5825,
      "狐": 5826,
      "狗": 5827,
      "狢": 5828,
      "狩": 5829,
      "独": 5830,
      "狮": 5831,
      "狼": 5832,
      "猎": 5833,
      "猛": 5834,
      "猟": 5835,
      "猢": 5836,
      "猪": 5837,
      "猫": 5838,
      "献": 5839,
      "猴": 5840,
      "猷": 5841,
      "猻": 5842,
      "猿": 5843,
      "獄": 5844,
      "獅": 5845,
      "獎": 5846,
      "獒": 5847,
      "獣": 5848,
      "獨": 5849,
      "獬": 5850,
      "獲": 5851,
      "獻": 5852,
      "獼": 5853,
      "玄": 5854,
      "率": 5855,
      "玉": 5856,
      "王": 5857,
      "玖": 5858,
      "玛": 5859,
      "玢": 5860,
      "玨": 5861,
      "玩": 5862,
      "玫": 5863,
      "玮": 5864,
      "环": 5865,
      "现": 5866,
      "玲": 5867,
      "玶": 5868,
      "玻": 5869,
      "珈": 5870,
      "珉": 5871,
      "珊": 5872,
      "珍": 5873,
      "珞": 5874,
      "珠": 5875,
      "珣": 5876,
      "珥": 5877,
      "珩": 5878,
      "珪": 5879,
      "班": 5880,
      "珲": 5881,
      "珽": 5882,
      "現": 5883,
      "球": 5884,
      "琅": 5885,
      "理": 5886,
      "琉": 5887,
      "琏": 5888,
      "琛": 5889,
      "琪": 5890,
      "琮": 5891,
      "琲": 5892,
      "琳": 5893,
      "琴": 5894,
      "瑁": 5895,
      "瑋": 5896,
      "瑕": 5897,
      "瑛": 5898,
      "瑜": 5899,
      "瑞": 5900,
      "瑟": 5901,
      "瑠": 5902,
      "瑤": 5903,
      "瑪": 5904,
      "瑯": 5905,
      "瑰": 5906,
      "瑶": 5907,
      "瑾": 5908,
      "璀": 5909,
      "璃": 5910,
      "璇": 5911,
      "璉": 5912,
      "璋": 5913,
      "璐": 5914,
      "璘": 5915,
      "璜": 5916,
      "璠": 5917,
      "璧": 5918,
      "璨": 5919,
      "璩": 5920,
      "環": 5921,
      "璿": 5922,
      "瓊": 5923,
      "瓌": 5924,
      "瓘": 5925,
      "瓚": 5926,
      "瓜": 5927,
      "瓠": 5928,
      "瓣": 5929,
      "瓦": 5930,
      "瓶": 5931,
      "瓷": 5932,
      "甄": 5933,
      "甕": 5934,
      "甘": 5935,
      "甚": 5936,
      "甜": 5937,
      "生": 5938,
      "產": 5939,
      "産": 5940,
      "用": 5941,
      "甫": 5942,
      "甯": 5943,
      "田": 5944,
      "由": 5945,
      "甲": 5946,
      "申": 5947,
      "电": 5948,
      "男": 5949,
      "甸": 5950,
      "町": 5951,
      "画": 5952,
      "畅": 5953,
      "界": 5954,
      "畑": 5955,
      "畔": 5956,
      "留": 5957,
      "畜": 5958,
      "畢": 5959,
      "略": 5960,
      "番": 5961,
      "畫": 5962,
      "異": 5963,
      "畲": 5964,
      "當": 5965,
      "疆": 5966,
      "疏": 5967,
      "疑": 5968,
      "疒": 5969,
      "疗": 5970,
      "疫": 5971,
      "疯": 5972,
      "疹": 5973,
      "疼": 5974,
      "疾": 5975,
      "病": 5976,
      "症": 5977,
      "痕": 5978,
      "痛": 5979,
      "痢": 5980,
      "痰": 5981,
      "痴": 5982,
      "瘋": 5983,
      "瘍": 5984,
      "瘟": 5985,
      "瘤": 5986,
      "瘦": 5987,
      "瘾": 5988,
      "療": 5989,
      "癌": 5990,
      "癎": 5991,
      "癒": 5992,
      "癖": 5993,
      "癲": 5994,
      "癸": 5995,
      "発": 5996,
      "登": 5997,
      "發": 5998,
      "白": 5999,
      "百": 6000,
      "的": 6001,
      "皆": 6002,
      "皇": 6003,
      "皎": 6004,
      "皓": 6005,
      "皮": 6006,
      "盆": 6007,
      "盈": 6008,
      "益": 6009,
      "盎": 6010,
      "监": 6011,
      "盖": 6012,
      "盗": 6013,
      "盘": 6014,
      "盛": 6015,
      "盞": 6016,
      "盟": 6017,
      "盡": 6018,
      "監": 6019,
      "盤": 6020,
      "盧": 6021,
      "盩": 6022,
      "目": 6023,
      "盲": 6024,
      "直": 6025,
      "相": 6026,
      "盾": 6027,
      "省": 6028,
      "看": 6029,
      "県": 6030,
      "真": 6031,
      "眠": 6032,
      "眩": 6033,
      "眼": 6034,
      "眾": 6035,
      "着": 6036,
      "睏": 6037,
      "睛": 6038,
      "睡": 6039,
      "督": 6040,
      "睦": 6041,
      "睿": 6042,
      "瞪": 6043,
      "瞬": 6044,
      "瞳": 6045,
      "瞿": 6046,
      "矛": 6047,
      "矢": 6048,
      "知": 6049,
      "矩": 6050,
      "短": 6051,
      "矮": 6052,
      "石": 6053,
      "矿": 6054,
      "码": 6055,
      "砂": 6056,
      "研": 6057,
      "砕": 6058,
      "砥": 6059,
      "砲": 6060,
      "破": 6061,
      "砷": 6062,
      "砼": 6063,
      "硝": 6064,
      "硫": 6065,
      "硬": 6066,
      "确": 6067,
      "碉": 6068,
      "碑": 6069,
      "碗": 6070,
      "碧": 6071,
      "碩": 6072,
      "碰": 6073,
      "碱": 6074,
      "確": 6075,
      "碼": 6076,
      "磁": 6077,
      "磅": 6078,
      "磐": 6079,
      "磡": 6080,
      "磨": 6081,
      "磯": 6082,
      "礎": 6083,
      "礙": 6084,
      "示": 6085,
      "礻": 6086,
      "礼": 6087,
      "礽": 6088,
      "社": 6089,
      "祁": 6090,
      "祇": 6091,
      "祈": 6092,
      "祉": 6093,
      "祐": 6094,
      "祓": 6095,
      "祖": 6096,
      "祝": 6097,
      "神": 6098,
      "祟": 6099,
      "祢": 6100,
      "祥": 6101,
      "票": 6102,
      "祭": 6103,
      "祯": 6104,
      "祺": 6105,
      "祿": 6106,
      "禁": 6107,
      "禅": 6108,
      "禊": 6109,
      "禎": 6110,
      "福": 6111,
      "禔": 6112,
      "禛": 6113,
      "禟": 6114,
      "禦": 6115,
      "禧": 6116,
      "禩": 6117,
      "禪": 6118,
      "禮": 6119,
      "禰": 6120,
      "禹": 6121,
      "禺": 6122,
      "离": 6123,
      "禽": 6124,
      "禾": 6125,
      "秀": 6126,
      "私": 6127,
      "秉": 6128,
      "秋": 6129,
      "种": 6130,
      "科": 6131,
      "秒": 6132,
      "秘": 6133,
      "租": 6134,
      "秦": 6135,
      "称": 6136,
      "移": 6137,
      "稀": 6138,
      "程": 6139,
      "稍": 6140,
      "税": 6141,
      "稚": 6142,
      "稟": 6143,
      "稠": 6144,
      "種": 6145,
      "稱": 6146,
      "稲": 6147,
      "稻": 6148,
      "稼": 6149,
      "稽": 6150,
      "稿": 6151,
      "穀": 6152,
      "穂": 6153,
      "穆": 6154,
      "穌": 6155,
      "積": 6156,
      "穏": 6157,
      "穠": 6158,
      "穫": 6159,
      "穴": 6160,
      "究": 6161,
      "穷": 6162,
      "穹": 6163,
      "空": 6164,
      "穿": 6165,
      "突": 6166,
      "窃": 6167,
      "窍": 6168,
      "窓": 6169,
      "窗": 6170,
      "窝": 6171,
      "窟": 6172,
      "窦": 6173,
      "窩": 6174,
      "窯": 6175,
      "竊": 6176,
      "立": 6177,
      "站": 6178,
      "竜": 6179,
      "竟": 6180,
      "章": 6181,
      "童": 6182,
      "端": 6183,
      "競": 6184,
      "竹": 6185,
      "竺": 6186,
      "笃": 6187,
      "笑": 6188,
      "笔": 6189,
      "笛": 6190,
      "笠": 6191,
      "符": 6192,
      "笨": 6193,
      "第": 6194,
      "笹": 6195,
      "笼": 6196,
      "筆": 6197,
      "等": 6198,
      "筋": 6199,
      "筑": 6200,
      "筒": 6201,
      "答": 6202,
      "策": 6203,
      "筛": 6204,
      "筠": 6205,
      "筧": 6206,
      "筭": 6207,
      "筱": 6208,
      "筵": 6209,
      "筷": 6210,
      "筹": 6211,
      "签": 6212,
      "简": 6213,
      "箋": 6214,
      "箏": 6215,
      "箐": 6216,
      "箒": 6217,
      "算": 6218,
      "管": 6219,
      "箭": 6220,
      "箱": 6221,
      "箴": 6222,
      "箸": 6223,
      "節": 6224,
      "範": 6225,
      "篇": 6226,
      "築": 6227,
      "篠": 6228,
      "篤": 6229,
      "篭": 6230,
      "篮": 6231,
      "簡": 6232,
      "簿": 6233,
      "籍": 6234,
      "籙": 6235,
      "籠": 6236,
      "籤": 6237,
      "米": 6238,
      "类": 6239,
      "籽": 6240,
      "粉": 6241,
      "粒": 6242,
      "粗": 6243,
      "粘": 6244,
      "粛": 6245,
      "粟": 6246,
      "粤": 6247,
      "粧": 6248,
      "粮": 6249,
      "粵": 6250,
      "粽": 6251,
      "精": 6252,
      "粿": 6253,
      "糊": 6254,
      "糕": 6255,
      "糖": 6256,
      "糙": 6257,
      "糞": 6258,
      "糟": 6259,
      "糯": 6260,
      "糸": 6261,
      "糺": 6262,
      "系": 6263,
      "紀": 6264,
      "約": 6265,
      "紅": 6266,
      "紈": 6267,
      "紋": 6268,
      "納": 6269,
      "純": 6270,
      "紗": 6271,
      "紙": 6272,
      "級": 6273,
      "素": 6274,
      "索": 6275,
      "紧": 6276,
      "紫": 6277,
      "累": 6278,
      "細": 6279,
      "紱": 6280,
      "紹": 6281,
      "紺": 6282,
      "終": 6283,
      "組": 6284,
      "絆": 6285,
      "経": 6286,
      "結": 6287,
      "絞": 6288,
      "絡": 6289,
      "絢": 6290,
      "給": 6291,
      "絮": 6292,
      "統": 6293,
      "絲": 6294,
      "絳": 6295,
      "絵": 6296,
      "絶": 6297,
      "絹": 6298,
      "經": 6299,
      "継": 6300,
      "続": 6301,
      "綜": 6302,
      "綠": 6303,
      "綬": 6304,
      "維": 6305,
      "綱": 6306,
      "網": 6307,
      "綴": 6308,
      "綸": 6309,
      "綾": 6310,
      "緋": 6311,
      "総": 6312,
      "緒": 6313,
      "線": 6314,
      "締": 6315,
      "緣": 6316,
      "編": 6317,
      "緩": 6318,
      "緯": 6319,
      "練": 6320,
      "縁": 6321,
      "縄": 6322,
      "縛": 6323,
      "縣": 6324,
      "縱": 6325,
      "總": 6326,
      "績": 6327,
      "繁": 6328,
      "繍": 6329,
      "織": 6330,
      "繞": 6331,
      "繡": 6332,
      "繩": 6333,
      "繪": 6334,
      "繫": 6335,
      "繭": 6336,
      "繹": 6337,
      "繼": 6338,
      "繽": 6339,
      "纂": 6340,
      "纈": 6341,
      "續": 6342,
      "纟": 6343,
      "红": 6344,
      "约": 6345,
      "级": 6346,
      "纨": 6347,
      "纪": 6348,
      "纬": 6349,
      "纯": 6350,
      "纱": 6351,
      "纳": 6352,
      "纵": 6353,
      "纸": 6354,
      "纹": 6355,
      "纽": 6356,
      "线": 6357,
      "练": 6358,
      "组": 6359,
      "细": 6360,
      "织": 6361,
      "终": 6362,
      "绍": 6363,
      "经": 6364,
      "绒": 6365,
      "结": 6366,
      "绘": 6367,
      "给": 6368,
      "绛": 6369,
      "络": 6370,
      "绝": 6371,
      "统": 6372,
      "绣": 6373,
      "绥": 6374,
      "继": 6375,
      "绩": 6376,
      "绪": 6377,
      "续": 6378,
      "绳": 6379,
      "维": 6380,
      "绵": 6381,
      "综": 6382,
      "绿": 6383,
      "缀": 6384,
      "缅": 6385,
      "缎": 6386,
      "缓": 6387,
      "编": 6388,
      "缘": 6389,
      "缩": 6390,
      "缬": 6391,
      "缴": 6392,
      "缺": 6393,
      "罐": 6394,
      "网": 6395,
      "罕": 6396,
      "罗": 6397,
      "罚": 6398,
      "罩": 6399,
      "罪": 6400,
      "置": 6401,
      "罰": 6402,
      "署": 6403,
      "罽": 6404,
      "羅": 6405,
      "羊": 6406,
      "羌": 6407,
      "美": 6408,
      "羔": 6409,
      "羡": 6410,
      "群": 6411,
      "義": 6412,
      "羲": 6413,
      "羹": 6414,
      "羽": 6415,
      "羿": 6416,
      "翁": 6417,
      "翃": 6418,
      "翅": 6419,
      "翊": 6420,
      "翎": 6421,
      "習": 6422,
      "翔": 6423,
      "翠": 6424,
      "翡": 6425,
      "翰": 6426,
      "翻": 6427,
      "翼": 6428,
      "耀": 6429,
      "老": 6430,
      "考": 6431,
      "者": 6432,
      "耆": 6433,
      "而": 6434,
      "耐": 6435,
      "耕": 6436,
      "耗": 6437,
      "耳": 6438,
      "耶": 6439,
      "耷": 6440,
      "耻": 6441,
      "耿": 6442,
      "聂": 6443,
      "聃": 6444,
      "聊": 6445,
      "职": 6446,
      "联": 6447,
      "聖": 6448,
      "聘": 6449,
      "聚": 6450,
      "聞": 6451,
      "聪": 6452,
      "聮": 6453,
      "聯": 6454,
      "聰": 6455,
      "聲": 6456,
      "聴": 6457,
      "職": 6458,
      "聽": 6459,
      "聾": 6460,
      "聿": 6461,
      "肅": 6462,
      "肇": 6463,
      "肉": 6464,
      "肋": 6465,
      "肌": 6466,
      "肖": 6467,
      "肘": 6468,
      "肚": 6469,
      "肝": 6470,
      "股": 6471,
      "肤": 6472,
      "肥": 6473,
      "肩": 6474,
      "肪": 6475,
      "肯": 6476,
      "育": 6477,
      "肺": 6478,
      "肿": 6479,
      "胃": 6480,
      "胆": 6481,
      "背": 6482,
      "胖": 6483,
      "胙": 6484,
      "胜": 6485,
      "胡": 6486,
      "胤": 6487,
      "胥": 6488,
      "胯": 6489,
      "胳": 6490,
      "胶": 6491,
      "胸": 6492,
      "能": 6493,
      "脂": 6494,
      "脅": 6495,
      "脆": 6496,
      "脇": 6497,
      "脈": 6498,
      "脉": 6499,
      "脏": 6500,
      "脑": 6501,
      "脚": 6502,
      "脛": 6503,
      "脩": 6504,
      "脫": 6505,
      "脱": 6506,
      "脳": 6507,
      "脸": 6508,
      "脾": 6509,
      "腊": 6510,
      "腋": 6511,
      "腐": 6512,
      "腕": 6513,
      "腦": 6514,
      "腫": 6515,
      "腰": 6516,
      "腱": 6517,
      "腳": 6518,
      "腹": 6519,
      "腾": 6520,
      "腿": 6521,
      "膀": 6522,
      "膊": 6523,
      "膏": 6524,
      "膚": 6525,
      "膜": 6526,
      "膳": 6527,
      "膺": 6528,
      "膽": 6529,
      "臂": 6530,
      "臓": 6531,
      "臘": 6532,
      "臟": 6533,
      "臣": 6534,
      "臧": 6535,
      "臨": 6536,
      "自": 6537,
      "臭": 6538,
      "至": 6539,
      "致": 6540,
      "臺": 6541,
      "臻": 6542,
      "臼": 6543,
      "臾": 6544,
      "舂": 6545,
      "舅": 6546,
      "與": 6547,
      "興": 6548,
      "舉": 6549,
      "舊": 6550,
      "舍": 6551,
      "舎": 6552,
      "舐": 6553,
      "舒": 6554,
      "舖": 6555,
      "舗": 6556,
      "舜": 6557,
      "舞": 6558,
      "舟": 6559,
      "舩": 6560,
      "航": 6561,
      "般": 6562,
      "舰": 6563,
      "船": 6564,
      "艇": 6565,
      "艦": 6566,
      "良": 6567,
      "色": 6568,
      "艳": 6569,
      "艶": 6570,
      "艷": 6571,
      "艺": 6572,
      "艾": 6573,
      "节": 6574,
      "芋": 6575,
      "芒": 6576,
      "芙": 6577,
      "芝": 6578,
      "芥": 6579,
      "芦": 6580,
      "芬": 6581,
      "芭": 6582,
      "芮": 6583,
      "芯": 6584,
      "花": 6585,
      "芳": 6586,
      "芷": 6587,
      "芸": 6588,
      "芹": 6589,
      "苍": 6590,
      "苏": 6591,
      "苑": 6592,
      "苔": 6593,
      "苗": 6594,
      "苞": 6595,
      "苟": 6596,
      "若": 6597,
      "苦": 6598,
      "苫": 6599,
      "英": 6600,
      "苹": 6601,
      "苺": 6602,
      "茂": 6603,
      "范": 6604,
      "茄": 6605,
      "茅": 6606,
      "茉": 6607,
      "茗": 6608,
      "茜": 6609,
      "茨": 6610,
      "茫": 6611,
      "茲": 6612,
      "茶": 6613,
      "茸": 6614,
      "茹": 6615,
      "茼": 6616,
      "荃": 6617,
      "荆": 6618,
      "草": 6619,
      "荊": 6620,
      "荐": 6621,
      "荒": 6622,
      "荔": 6623,
      "荘": 6624,
      "荡": 6625,
      "荣": 6626,
      "药": 6627,
      "荷": 6628,
      "莉": 6629,
      "莊": 6630,
      "莎": 6631,
      "莓": 6632,
      "莫": 6633,
      "莱": 6634,
      "莲": 6635,
      "获": 6636,
      "菅": 6637,
      "菊": 6638,
      "菌": 6639,
      "菓": 6640,
      "菜": 6641,
      "菟": 6642,
      "菠": 6643,
      "菩": 6644,
      "華": 6645,
      "菱": 6646,
      "菲": 6647,
      "萄": 6648,
      "萊": 6649,
      "萌": 6650,
      "萍": 6651,
      "萝": 6652,
      "营": 6653,
      "萧": 6654,
      "萨": 6655,
      "萩": 6656,
      "萬": 6657,
      "落": 6658,
      "葉": 6659,
      "著": 6660,
      "葛": 6661,
      "葡": 6662,
      "董": 6663,
      "葦": 6664,
      "葩": 6665,
      "葫": 6666,
      "葬": 6667,
      "葵": 6668,
      "蒂": 6669,
      "蒐": 6670,
      "蒙": 6671,
      "蒲": 6672,
      "蒸": 6673,
      "蒼": 6674,
      "蒿": 6675,
      "蓉": 6676,
      "蓋": 6677,
      "蓝": 6678,
      "蓨": 6679,
      "蓬": 6680,
      "蓮": 6681,
      "蔑": 6682,
      "蔘": 6683,
      "蔚": 6684,
      "蔡": 6685,
      "蔣": 6686,
      "蔬": 6687,
      "蔭": 6688,
      "蔵": 6689,
      "蕃": 6690,
      "蕉": 6691,
      "蕘": 6692,
      "蕙": 6693,
      "蕪": 6694,
      "蕭": 6695,
      "蕾": 6696,
      "薄": 6697,
      "薇": 6698,
      "薑": 6699,
      "薔": 6700,
      "薙": 6701,
      "薛": 6702,
      "薦": 6703,
      "薩": 6704,
      "薪": 6705,
      "薫": 6706,
      "薬": 6707,
      "薮": 6708,
      "薯": 6709,
      "藁": 6710,
      "藍": 6711,
      "藏": 6712,
      "藕": 6713,
      "藝": 6714,
      "藤": 6715,
      "藥": 6716,
      "藩": 6717,
      "藺": 6718,
      "藻": 6719,
      "蘆": 6720,
      "蘇": 6721,
      "蘊": 6722,
      "蘋": 6723,
      "蘭": 6724,
      "蘿": 6725,
      "虎": 6726,
      "虑": 6727,
      "虒": 6728,
      "處": 6729,
      "虚": 6730,
      "虛": 6731,
      "虞": 6732,
      "號": 6733,
      "虢": 6734,
      "虫": 6735,
      "虬": 6736,
      "虱": 6737,
      "虹": 6738,
      "虽": 6739,
      "虾": 6740,
      "蚁": 6741,
      "蚂": 6742,
      "蚊": 6743,
      "蚓": 6744,
      "蚕": 6745,
      "蚤": 6746,
      "蚩": 6747,
      "蚯": 6748,
      "蛇": 6749,
      "蛋": 6750,
      "蛍": 6751,
      "蛙": 6752,
      "蛛": 6753,
      "蛟": 6754,
      "蛤": 6755,
      "蛮": 6756,
      "蛹": 6757,
      "蛻": 6758,
      "蜂": 6759,
      "蜃": 6760,
      "蜉": 6761,
      "蜊": 6762,
      "蜕": 6763,
      "蜘": 6764,
      "蜜": 6765,
      "蝇": 6766,
      "蝉": 6767,
      "蝋": 6768,
      "蝎": 6769,
      "蝚": 6770,
      "蝣": 6771,
      "蝴": 6772,
      "蝶": 6773,
      "螂": 6774,
      "融": 6775,
      "螢": 6776,
      "螯": 6777,
      "螳": 6778,
      "螺": 6779,
      "蟑": 6780,
      "蟠": 6781,
      "蟲": 6782,
      "蟹": 6783,
      "蟻": 6784,
      "蠅": 6785,
      "蠍": 6786,
      "蠕": 6787,
      "蠟": 6788,
      "蠣": 6789,
      "蠻": 6790,
      "血": 6791,
      "衆": 6792,
      "行": 6793,
      "衍": 6794,
      "術": 6795,
      "街": 6796,
      "衛": 6797,
      "衝": 6798,
      "衡": 6799,
      "衣": 6800,
      "补": 6801,
      "表": 6802,
      "衫": 6803,
      "衬": 6804,
      "衷": 6805,
      "衿": 6806,
      "袁": 6807,
      "袋": 6808,
      "袖": 6809,
      "袢": 6810,
      "被": 6811,
      "袭": 6812,
      "裁": 6813,
      "裂": 6814,
      "装": 6815,
      "裏": 6816,
      "裔": 6817,
      "裕": 6818,
      "裙": 6819,
      "補": 6820,
      "裝": 6821,
      "裡": 6822,
      "裤": 6823,
      "裳": 6824,
      "裴": 6825,
      "裵": 6826,
      "裸": 6827,
      "裹": 6828,
      "製": 6829,
      "複": 6830,
      "褒": 6831,
      "褘": 6832,
      "褻": 6833,
      "襄": 6834,
      "襖": 6835,
      "襦": 6836,
      "襲": 6837,
      "襴": 6838,
      "西": 6839,
      "要": 6840,
      "覃": 6841,
      "覆": 6842,
      "覇": 6843,
      "見": 6844,
      "規": 6845,
      "視": 6846,
      "覚": 6847,
      "覧": 6848,
      "親": 6849,
      "観": 6850,
      "覺": 6851,
      "覽": 6852,
      "觀": 6853,
      "见": 6854,
      "观": 6855,
      "规": 6856,
      "视": 6857,
      "览": 6858,
      "觉": 6859,
      "角": 6860,
      "解": 6861,
      "触": 6862,
      "觴": 6863,
      "言": 6864,
      "訂": 6865,
      "計": 6866,
      "訊": 6867,
      "討": 6868,
      "訓": 6869,
      "託": 6870,
      "記": 6871,
      "訟": 6872,
      "訣": 6873,
      "訪": 6874,
      "設": 6875,
      "許": 6876,
      "訳": 6877,
      "訴": 6878,
      "証": 6879,
      "詁": 6880,
      "詔": 6881,
      "評": 6882,
      "詞": 6883,
      "詢": 6884,
      "試": 6885,
      "詩": 6886,
      "詰": 6887,
      "話": 6888,
      "該": 6889,
      "詳": 6890,
      "誇": 6891,
      "誉": 6892,
      "誌": 6893,
      "認": 6894,
      "誓": 6895,
      "誕": 6896,
      "誘": 6897,
      "語": 6898,
      "誠": 6899,
      "誤": 6900,
      "說": 6901,
      "説": 6902,
      "読": 6903,
      "誰": 6904,
      "課": 6905,
      "誼": 6906,
      "誾": 6907,
      "調": 6908,
      "談": 6909,
      "請": 6910,
      "諏": 6911,
      "論": 6912,
      "諧": 6913,
      "諫": 6914,
      "諮": 6915,
      "諸": 6916,
      "諾": 6917,
      "謀": 6918,
      "謂": 6919,
      "謊": 6920,
      "謎": 6921,
      "謙": 6922,
      "講": 6923,
      "謝": 6924,
      "謨": 6925,
      "證": 6926,
      "譌": 6927,
      "識": 6928,
      "譙": 6929,
      "譚": 6930,
      "譜": 6931,
      "譥": 6932,
      "警": 6933,
      "譯": 6934,
      "議": 6935,
      "譲": 6936,
      "護": 6937,
      "譽": 6938,
      "讀": 6939,
      "讃": 6940,
      "變": 6941,
      "讌": 6942,
      "讓": 6943,
      "讚": 6944,
      "讠": 6945,
      "计": 6946,
      "订": 6947,
      "认": 6948,
      "讨": 6949,
      "让": 6950,
      "训": 6951,
      "议": 6952,
      "讯": 6953,
      "记": 6954,
      "讲": 6955,
      "许": 6956,
      "论": 6957,
      "设": 6958,
      "访": 6959,
      "诀": 6960,
      "证": 6961,
      "评": 6962,
      "诅": 6963,
      "识": 6964,
      "诉": 6965,
      "词": 6966,
      "译": 6967,
      "试": 6968,
      "诗": 6969,
      "诚": 6970,
      "话": 6971,
      "诞": 6972,
      "询": 6973,
      "该": 6974,
      "诫": 6975,
      "语": 6976,
      "误": 6977,
      "说": 6978,
      "请": 6979,
      "诺": 6980,
      "读": 6981,
      "课": 6982,
      "谁": 6983,
      "调": 6984,
      "谈": 6985,
      "谊": 6986,
      "谋": 6987,
      "谎": 6988,
      "谜": 6989,
      "谢": 6990,
      "谦": 6991,
      "谩": 6992,
      "谬": 6993,
      "谱": 6994,
      "谷": 6995,
      "谿": 6996,
      "豁": 6997,
      "豆": 6998,
      "豊": 6999,
      "豌": 7000,
      "豐": 7001,
      "豕": 7002,
      "豚": 7003,
      "象": 7004,
      "豪": 7005,
      "豫": 7006,
      "豬": 7007,
      "豸": 7008,
      "豹": 7009,
      "貂": 7010,
      "貅": 7011,
      "貌": 7012,
      "貓": 7013,
      "貔": 7014,
      "貝": 7015,
      "貞": 7016,
      "負": 7017,
      "財": 7018,
      "貢": 7019,
      "貨": 7020,
      "販": 7021,
      "貫": 7022,
      "責": 7023,
      "貳": 7024,
      "貴": 7025,
      "買": 7026,
      "費": 7027,
      "貿": 7028,
      "賀": 7029,
      "賁": 7030,
      "資": 7031,
      "賈": 7032,
      "賊": 7033,
      "賓": 7034,
      "賜": 7035,
      "賞": 7036,
      "賢": 7037,
      "賣": 7038,
      "賤": 7039,
      "賧": 7040,
      "質": 7041,
      "賭": 7042,
      "賴": 7043,
      "購": 7044,
      "賽": 7045,
      "贈": 7046,
      "贊": 7047,
      "贖": 7048,
      "贝": 7049,
      "负": 7050,
      "贡": 7051,
      "财": 7052,
      "责": 7053,
      "贤": 7054,
      "败": 7055,
      "账": 7056,
      "货": 7057,
      "质": 7058,
      "贩": 7059,
      "贪": 7060,
      "贯": 7061,
      "贴": 7062,
      "贵": 7063,
      "贸": 7064,
      "费": 7065,
      "贺": 7066,
      "贾": 7067,
      "贿": 7068,
      "赂": 7069,
      "资": 7070,
      "赉": 7071,
      "赋": 7072,
      "赏": 7073,
      "赖": 7074,
      "赘": 7075,
      "赚": 7076,
      "赛": 7077,
      "赞": 7078,
      "赢": 7079,
      "赤": 7080,
      "赦": 7081,
      "赫": 7082,
      "走": 7083,
      "赵": 7084,
      "赶": 7085,
      "起": 7086,
      "超": 7087,
      "越": 7088,
      "趋": 7089,
      "趙": 7090,
      "趟": 7091,
      "趣": 7092,
      "足": 7093,
      "趾": 7094,
      "跃": 7095,
      "跋": 7096,
      "跑": 7097,
      "跟": 7098,
      "跡": 7099,
      "跤": 7100,
      "路": 7101,
      "跳": 7102,
      "践": 7103,
      "踊": 7104,
      "踏": 7105,
      "踐": 7106,
      "踖": 7107,
      "踢": 7108,
      "踥": 7109,
      "踪": 7110,
      "蹄": 7111,
      "躍": 7112,
      "身": 7113,
      "躺": 7114,
      "車": 7115,
      "軌": 7116,
      "軍": 7117,
      "軒": 7118,
      "軟": 7119,
      "転": 7120,
      "軽": 7121,
      "軾": 7122,
      "較": 7123,
      "載": 7124,
      "輔": 7125,
      "輕": 7126,
      "輝": 7127,
      "輟": 7128,
      "輪": 7129,
      "輯": 7130,
      "輸": 7131,
      "輿": 7132,
      "轉": 7133,
      "轟": 7134,
      "车": 7135,
      "轨": 7136,
      "轩": 7137,
      "转": 7138,
      "轮": 7139,
      "软": 7140,
      "轰": 7141,
      "轻": 7142,
      "载": 7143,
      "较": 7144,
      "辆": 7145,
      "辈": 7146,
      "辉": 7147,
      "辑": 7148,
      "输": 7149,
      "辖": 7150,
      "辗": 7151,
      "辛": 7152,
      "辜": 7153,
      "辞": 7154,
      "辟": 7155,
      "辣": 7156,
      "辦": 7157,
      "辨": 7158,
      "辩": 7159,
      "辭": 7160,
      "辯": 7161,
      "辰": 7162,
      "辱": 7163,
      "農": 7164,
      "辶": 7165,
      "边": 7166,
      "辺": 7167,
      "辻": 7168,
      "込": 7169,
      "辽": 7170,
      "达": 7171,
      "迅": 7172,
      "过": 7173,
      "迈": 7174,
      "迎": 7175,
      "运": 7176,
      "近": 7177,
      "返": 7178,
      "还": 7179,
      "这": 7180,
      "进": 7181,
      "远": 7182,
      "连": 7183,
      "迟": 7184,
      "迦": 7185,
      "迪": 7186,
      "迫": 7187,
      "述": 7188,
      "迴": 7189,
      "迷": 7190,
      "追": 7191,
      "退": 7192,
      "送": 7193,
      "适": 7194,
      "逃": 7195,
      "逆": 7196,
      "选": 7197,
      "逊": 7198,
      "透": 7199,
      "逐": 7200,
      "递": 7201,
      "途": 7202,
      "逗": 7203,
      "這": 7204,
      "通": 7205,
      "速": 7206,
      "造": 7207,
      "逢": 7208,
      "連": 7209,
      "週": 7210,
      "進": 7211,
      "逸": 7212,
      "逹": 7213,
      "遁": 7214,
      "遅": 7215,
      "遇": 7216,
      "遊": 7217,
      "運": 7218,
      "遍": 7219,
      "過": 7220,
      "遐": 7221,
      "道": 7222,
      "達": 7223,
      "違": 7224,
      "遗": 7225,
      "遜": 7226,
      "遠": 7227,
      "遡": 7228,
      "遣": 7229,
      "遥": 7230,
      "適": 7231,
      "遭": 7232,
      "遮": 7233,
      "遯": 7234,
      "遲": 7235,
      "遴": 7236,
      "遵": 7237,
      "遷": 7238,
      "選": 7239,
      "遹": 7240,
      "遺": 7241,
      "避": 7242,
      "邀": 7243,
      "邁": 7244,
      "還": 7245,
      "邆": 7246,
      "邇": 7247,
      "邉": 7248,
      "邊": 7249,
      "邏": 7250,
      "邑": 7251,
      "邓": 7252,
      "邛": 7253,
      "邢": 7254,
      "那": 7255,
      "邦": 7256,
      "邨": 7257,
      "邪": 7258,
      "邮": 7259,
      "邱": 7260,
      "邵": 7261,
      "邸": 7262,
      "邹": 7263,
      "邻": 7264,
      "郁": 7265,
      "郊": 7266,
      "郎": 7267,
      "郑": 7268,
      "郜": 7269,
      "郝": 7270,
      "郡": 7271,
      "郢": 7272,
      "部": 7273,
      "郭": 7274,
      "郷": 7275,
      "都": 7276,
      "鄂": 7277,
      "鄉": 7278,
      "鄒": 7279,
      "鄚": 7280,
      "鄣": 7281,
      "鄧": 7282,
      "鄭": 7283,
      "鄺": 7284,
      "酈": 7285,
      "酉": 7286,
      "配": 7287,
      "酒": 7288,
      "酱": 7289,
      "酵": 7290,
      "酷": 7291,
      "酸": 7292,
      "醉": 7293,
      "醍": 7294,
      "醐": 7295,
      "醒": 7296,
      "醤": 7297,
      "醫": 7298,
      "醬": 7299,
      "釁": 7300,
      "采": 7301,
      "釈": 7302,
      "釉": 7303,
      "释": 7304,
      "里": 7305,
      "重": 7306,
      "野": 7307,
      "量": 7308,
      "金": 7309,
      "釜": 7310,
      "釣": 7311,
      "釵": 7312,
      "鈕": 7313,
      "鈞": 7314,
      "鈴": 7315,
      "鈷": 7316,
      "鈺": 7317,
      "鉀": 7318,
      "鉃": 7319,
      "鉄": 7320,
      "鉉": 7321,
      "鉞": 7322,
      "鉢": 7323,
      "鉤": 7324,
      "鉴": 7325,
      "銀": 7326,
      "銃": 7327,
      "銅": 7328,
      "銓": 7329,
      "銖": 7330,
      "銘": 7331,
      "銭": 7332,
      "銳": 7333,
      "鋒": 7334,
      "鋼": 7335,
      "錄": 7336,
      "錚": 7337,
      "錢": 7338,
      "錦": 7339,
      "錫": 7340,
      "錯": 7341,
      "録": 7342,
      "鍊": 7343,
      "鍋": 7344,
      "鍍": 7345,
      "鍾": 7346,
      "鎌": 7347,
      "鎖": 7348,
      "鎮": 7349,
      "鏞": 7350,
      "鏡": 7351,
      "鐘": 7352,
      "鐵": 7353,
      "鐸": 7354,
      "鑄": 7355,
      "鑑": 7356,
      "鑒": 7357,
      "鑫": 7358,
      "鑼": 7359,
      "鑽": 7360,
      "鑾": 7361,
      "钅": 7362,
      "针": 7363,
      "钉": 7364,
      "钓": 7365,
      "钗": 7366,
      "钚": 7367,
      "钟": 7368,
      "钢": 7369,
      "钦": 7370,
      "钮": 7371,
      "钰": 7372,
      "钱": 7373,
      "钵": 7374,
      "钺": 7375,
      "钻": 7376,
      "铁": 7377,
      "铃": 7378,
      "铆": 7379,
      "铜": 7380,
      "铣": 7381,
      "铭": 7382,
      "银": 7383,
      "铸": 7384,
      "铺": 7385,
      "销": 7386,
      "锁": 7387,
      "锅": 7388,
      "锋": 7389,
      "错": 7390,
      "锚": 7391,
      "锟": 7392,
      "锦": 7393,
      "锭": 7394,
      "键": 7395,
      "镇": 7396,
      "镜": 7397,
      "長": 7398,
      "长": 7399,
      "門": 7400,
      "閃": 7401,
      "閉": 7402,
      "開": 7403,
      "閑": 7404,
      "間": 7405,
      "関": 7406,
      "閣": 7407,
      "閤": 7408,
      "閥": 7409,
      "閱": 7410,
      "閲": 7411,
      "閻": 7412,
      "閼": 7413,
      "闇": 7414,
      "闊": 7415,
      "闍": 7416,
      "闕": 7417,
      "闘": 7418,
      "關": 7419,
      "门": 7420,
      "闪": 7421,
      "闭": 7422,
      "问": 7423,
      "闯": 7424,
      "闲": 7425,
      "间": 7426,
      "闹": 7427,
      "闻": 7428,
      "闾": 7429,
      "阁": 7430,
      "阅": 7431,
      "阈": 7432,
      "阜": 7433,
      "队": 7434,
      "阪": 7435,
      "阮": 7436,
      "防": 7437,
      "阳": 7438,
      "阴": 7439,
      "阶": 7440,
      "阿": 7441,
      "陀": 7442,
      "陂": 7443,
      "附": 7444,
      "际": 7445,
      "陆": 7446,
      "陈": 7447,
      "陋": 7448,
      "降": 7449,
      "限": 7450,
      "陛": 7451,
      "陟": 7452,
      "院": 7453,
      "陣": 7454,
      "除": 7455,
      "陥": 7456,
      "险": 7457,
      "陪": 7458,
      "陰": 7459,
      "陳": 7460,
      "陵": 7461,
      "陶": 7462,
      "陷": 7463,
      "陸": 7464,
      "険": 7465,
      "陽": 7466,
      "隅": 7467,
      "隆": 7468,
      "隊": 7469,
      "隍": 7470,
      "階": 7471,
      "随": 7472,
      "隔": 7473,
      "隕": 7474,
      "際": 7475,
      "障": 7476,
      "隠": 7477,
      "隣": 7478,
      "隨": 7479,
      "隱": 7480,
      "隶": 7481,
      "隷": 7482,
      "隸": 7483,
      "隹": 7484,
      "隽": 7485,
      "难": 7486,
      "雀": 7487,
      "雁": 7488,
      "雄": 7489,
      "雅": 7490,
      "集": 7491,
      "雇": 7492,
      "雋": 7493,
      "雍": 7494,
      "雑": 7495,
      "雕": 7496,
      "雙": 7497,
      "雜": 7498,
      "雞": 7499,
      "離": 7500,
      "難": 7501,
      "雨": 7502,
      "雪": 7503,
      "雯": 7504,
      "雲": 7505,
      "雳": 7506,
      "零": 7507,
      "雷": 7508,
      "雹": 7509,
      "電": 7510,
      "雾": 7511,
      "需": 7512,
      "霄": 7513,
      "霆": 7514,
      "震": 7515,
      "霉": 7516,
      "霊": 7517,
      "霍": 7518,
      "霓": 7519,
      "霖": 7520,
      "霙": 7521,
      "霞": 7522,
      "霧": 7523,
      "露": 7524,
      "霸": 7525,
      "霹": 7526,
      "靂": 7527,
      "靈": 7528,
      "靑": 7529,
      "青": 7530,
      "靖": 7531,
      "静": 7532,
      "靚": 7533,
      "靜": 7534,
      "非": 7535,
      "靠": 7536,
      "面": 7537,
      "革": 7538,
      "靺": 7539,
      "鞍": 7540,
      "鞏": 7541,
      "鞠": 7542,
      "鞨": 7543,
      "鞬": 7544,
      "鞮": 7545,
      "韋": 7546,
      "韌": 7547,
      "韓": 7548,
      "韦": 7549,
      "韩": 7550,
      "韭": 7551,
      "音": 7552,
      "韶": 7553,
      "韻": 7554,
      "響": 7555,
      "頁": 7556,
      "頂": 7557,
      "頃": 7558,
      "項": 7559,
      "順": 7560,
      "須": 7561,
      "預": 7562,
      "頒": 7563,
      "領": 7564,
      "頡": 7565,
      "頤": 7566,
      "頭": 7567,
      "頼": 7568,
      "題": 7569,
      "額": 7570,
      "顏": 7571,
      "顔": 7572,
      "願": 7573,
      "顙": 7574,
      "類": 7575,
      "顧": 7576,
      "顯": 7577,
      "页": 7578,
      "顶": 7579,
      "项": 7580,
      "顺": 7581,
      "须": 7582,
      "顼": 7583,
      "顽": 7584,
      "顾": 7585,
      "顿": 7586,
      "颁": 7587,
      "颂": 7588,
      "预": 7589,
      "领": 7590,
      "频": 7591,
      "颖": 7592,
      "题": 7593,
      "颛": 7594,
      "颜": 7595,
      "额": 7596,
      "風": 7597,
      "颪": 7598,
      "颱": 7599,
      "颺": 7600,
      "飆": 7601,
      "风": 7602,
      "飒": 7603,
      "飛": 7604,
      "飞": 7605,
      "食": 7606,
      "飩": 7607,
      "飯": 7608,
      "飲": 7609,
      "飴": 7610,
      "飼": 7611,
      "飽": 7612,
      "飾": 7613,
      "餅": 7614,
      "養": 7615,
      "餐": 7616,
      "餓": 7617,
      "餔": 7618,
      "餘": 7619,
      "餠": 7620,
      "館": 7621,
      "餮": 7622,
      "饂": 7623,
      "饅": 7624,
      "饋": 7625,
      "饒": 7626,
      "饕": 7627,
      "饣": 7628,
      "饭": 7629,
      "饮": 7630,
      "饱": 7631,
      "饺": 7632,
      "饾": 7633,
      "饿": 7634,
      "馆": 7635,
      "首": 7636,
      "馗": 7637,
      "香": 7638,
      "馥": 7639,
      "馨": 7640,
      "馬": 7641,
      "馭": 7642,
      "馮": 7643,
      "駄": 7644,
      "駅": 7645,
      "駆": 7646,
      "駒": 7647,
      "駕": 7648,
      "駛": 7649,
      "駝": 7650,
      "駟": 7651,
      "駢": 7652,
      "駱": 7653,
      "駿": 7654,
      "騎": 7655,
      "騒": 7656,
      "験": 7657,
      "騮": 7658,
      "騰": 7659,
      "騷": 7660,
      "驍": 7661,
      "驒": 7662,
      "驗": 7663,
      "驚": 7664,
      "马": 7665,
      "驰": 7666,
      "驱": 7667,
      "骁": 7668,
      "骂": 7669,
      "骃": 7670,
      "骆": 7671,
      "验": 7672,
      "骏": 7673,
      "骑": 7674,
      "骗": 7675,
      "骤": 7676,
      "骨": 7677,
      "骳": 7678,
      "髓": 7679,
      "體": 7680,
      "高": 7681,
      "髙": 7682,
      "髪": 7683,
      "髭": 7684,
      "髮": 7685,
      "髯": 7686,
      "鬆": 7687,
      "鬥": 7688,
      "鬱": 7689,
      "鬼": 7690,
      "魁": 7691,
      "魂": 7692,
      "魃": 7693,
      "魅": 7694,
      "魈": 7695,
      "魏": 7696,
      "魔": 7697,
      "魚": 7698,
      "魯": 7699,
      "魹": 7700,
      "鮎": 7701,
      "鮑": 7702,
      "鮫": 7703,
      "鮭": 7704,
      "鮮": 7705,
      "鯉": 7706,
      "鯖": 7707,
      "鯤": 7708,
      "鯱": 7709,
      "鰍": 7710,
      "鱗": 7711,
      "鱼": 7712,
      "鲁": 7713,
      "鲍": 7714,
      "鲜": 7715,
      "鳥": 7716,
      "鳩": 7717,
      "鳳": 7718,
      "鳴": 7719,
      "鴛": 7720,
      "鴦": 7721,
      "鴨": 7722,
      "鴻": 7723,
      "鵊": 7724,
      "鵑": 7725,
      "鵬": 7726,
      "鵲": 7727,
      "鶏": 7728,
      "鶴": 7729,
      "鶼": 7730,
      "鷗": 7731,
      "鷦": 7732,
      "鷫": 7733,
      "鷯": 7734,
      "鷲": 7735,
      "鷹": 7736,
      "鸟": 7737,
      "鸠": 7738,
      "鸡": 7739,
      "鸣": 7740,
      "鸭": 7741,
      "鸮": 7742,
      "鸯": 7743,
      "鸳": 7744,
      "鹃": 7745,
      "鹏": 7746,
      "鹘": 7747,
      "鹤": 7748,
      "鹭": 7749,
      "鹰": 7750,
      "鹽": 7751,
      "鹿": 7752,
      "麋": 7753,
      "麗": 7754,
      "麝": 7755,
      "麟": 7756,
      "麥": 7757,
      "麦": 7758,
      "麴": 7759,
      "麵": 7760,
      "麹": 7761,
      "麺": 7762,
      "麻": 7763,
      "麼": 7764,
      "黃": 7765,
      "黄": 7766,
      "黎": 7767,
      "黐": 7768,
      "黑": 7769,
      "黒": 7770,
      "黔": 7771,
      "默": 7772,
      "黙": 7773,
      "黛": 7774,
      "點": 7775,
      "黨": 7776,
      "鼎": 7777,
      "鼐": 7778,
      "鼓": 7779,
      "鼠": 7780,
      "齃": 7781,
      "齊": 7782,
      "齋": 7783,
      "齐": 7784,
      "齡": 7785,
      "齮": 7786,
      "龍": 7787,
      "龔": 7788,
      "龙": 7789,
      "龜": 7790,
      "龢": 7791,
      "ꅐ": 7792,
      "ꅩ": 7793,
      "ꅪ": 7794,
      "Ꙋ": 7795,
      "ꜜ": 7796,
      "ꜣ": 7797,
      "ꜥ": 7798,
      "Ꜧ": 7799,
      "ꜧ": 7800,
      "Ꜩ": 7801,
      "ꜩ": 7802,
      "Ꜿ": 7803,
      "ꜿ": 7804,
      "꞉": 7805,
      "ꞌ": 7806,
      "Ꞓ": 7807,
      "ꞓ": 7808,
      "ꞔ": 7809,
      "Ꞔ": 7810,
      "ꟲ": 7811,
      "ꦁ": 7812,
      "ꦂ": 7813,
      "ꦆ": 7814,
      "ꦇ": 7815,
      "ꦏ": 7816,
      "ꦒ": 7817,
      "ꦥ": 7818,
      "ꦧ": 7819,
      "ꦨ": 7820,
      "ꦩ": 7821,
      "ꦫ": 7822,
      "ꦭ": 7823,
      "ꦶ": 7824,
      "ꦸ": 7825,
      "꧀": 7826,
      "ꭥ": 7827,
      "가": 7828,
      "각": 7829,
      "간": 7830,
      "갈": 7831,
      "감": 7832,
      "갑": 7833,
      "값": 7834,
      "갔": 7835,
      "강": 7836,
      "갖": 7837,
      "같": 7838,
      "개": 7839,
      "객": 7840,
      "갭": 7841,
      "걀": 7842,
      "거": 7843,
      "걱": 7844,
      "건": 7845,
      "걷": 7846,
      "걸": 7847,
      "검": 7848,
      "겁": 7849,
      "것": 7850,
      "게": 7851,
      "겐": 7852,
      "겠": 7853,
      "겨": 7854,
      "격": 7855,
      "견": 7856,
      "결": 7857,
      "겸": 7858,
      "겹": 7859,
      "경": 7860,
      "계": 7861,
      "고": 7862,
      "곡": 7863,
      "곤": 7864,
      "곧": 7865,
      "골": 7866,
      "곰": 7867,
      "곱": 7868,
      "곳": 7869,
      "공": 7870,
      "과": 7871,
      "곽": 7872,
      "관": 7873,
      "괄": 7874,
      "광": 7875,
      "괘": 7876,
      "괴": 7877,
      "교": 7878,
      "구": 7879,
      "국": 7880,
      "군": 7881,
      "굴": 7882,
      "굽": 7883,
      "굿": 7884,
      "궁": 7885,
      "권": 7886,
      "궐": 7887,
      "귀": 7888,
      "규": 7889,
      "균": 7890,
      "귤": 7891,
      "그": 7892,
      "극": 7893,
      "근": 7894,
      "글": 7895,
      "금": 7896,
      "급": 7897,
      "기": 7898,
      "긴": 7899,
      "길": 7900,
      "김": 7901,
      "깃": 7902,
      "깊": 7903,
      "까": 7904,
      "깍": 7905,
      "깨": 7906,
      "꺼": 7907,
      "꺾": 7908,
      "껍": 7909,
      "께": 7910,
      "꼬": 7911,
      "꽃": 7912,
      "꾸": 7913,
      "꾼": 7914,
      "꿈": 7915,
      "뀐": 7916,
      "끄": 7917,
      "끈": 7918,
      "끊": 7919,
      "끝": 7920,
      "끼": 7921,
      "나": 7922,
      "낙": 7923,
      "난": 7924,
      "날": 7925,
      "남": 7926,
      "납": 7927,
      "낭": 7928,
      "낮": 7929,
      "내": 7930,
      "낸": 7931,
      "낼": 7932,
      "냈": 7933,
      "냉": 7934,
      "냥": 7935,
      "너": 7936,
      "널": 7937,
      "넓": 7938,
      "넘": 7939,
      "넣": 7940,
      "네": 7941,
      "넷": 7942,
      "녀": 7943,
      "년": 7944,
      "념": 7945,
      "녕": 7946,
      "노": 7947,
      "녹": 7948,
      "놀": 7949,
      "놈": 7950,
      "농": 7951,
      "높": 7952,
      "누": 7953,
      "눈": 7954,
      "눉": 7955,
      "뉴": 7956,
      "뉵": 7957,
      "늄": 7958,
      "느": 7959,
      "는": 7960,
      "늘": 7961,
      "능": 7962,
      "니": 7963,
      "닐": 7964,
      "님": 7965,
      "닝": 7966,
      "다": 7967,
      "닥": 7968,
      "단": 7969,
      "닫": 7970,
      "달": 7971,
      "닭": 7972,
      "담": 7973,
      "답": 7974,
      "당": 7975,
      "닿": 7976,
      "대": 7977,
      "댄": 7978,
      "댈": 7979,
      "댓": 7980,
      "더": 7981,
      "덕": 7982,
      "던": 7983,
      "덤": 7984,
      "데": 7985,
      "덴": 7986,
      "델": 7987,
      "뎅": 7988,
      "도": 7989,
      "독": 7990,
      "돈": 7991,
      "돋": 7992,
      "돌": 7993,
      "돔": 7994,
      "동": 7995,
      "돼": 7996,
      "되": 7997,
      "된": 7998,
      "됩": 7999,
      "됸": 8000,
      "두": 8001,
      "둑": 8002,
      "둘": 8003,
      "둠": 8004,
      "둣": 8005,
      "둥": 8006,
      "뒤": 8007,
      "뒷": 8008,
      "듀": 8009,
      "듐": 8010,
      "드": 8011,
      "득": 8012,
      "든": 8013,
      "듣": 8014,
      "들": 8015,
      "듯": 8016,
      "등": 8017,
      "디": 8018,
      "딩": 8019,
      "따": 8020,
      "땅": 8021,
      "때": 8022,
      "땠": 8023,
      "떠": 8024,
      "떡": 8025,
      "떤": 8026,
      "또": 8027,
      "뜨": 8028,
      "뜻": 8029,
      "라": 8030,
      "락": 8031,
      "란": 8032,
      "랄": 8033,
      "람": 8034,
      "랍": 8035,
      "랑": 8036,
      "래": 8037,
      "랙": 8038,
      "랜": 8039,
      "랩": 8040,
      "략": 8041,
      "량": 8042,
      "러": 8043,
      "럭": 8044,
      "런": 8045,
      "럴": 8046,
      "럼": 8047,
      "럽": 8048,
      "렁": 8049,
      "렇": 8050,
      "레": 8051,
      "렉": 8052,
      "렌": 8053,
      "렘": 8054,
      "렛": 8055,
      "려": 8056,
      "력": 8057,
      "련": 8058,
      "렬": 8059,
      "렴": 8060,
      "령": 8061,
      "례": 8062,
      "로": 8063,
      "록": 8064,
      "론": 8065,
      "롤": 8066,
      "롬": 8067,
      "롱": 8068,
      "뢰": 8069,
      "료": 8070,
      "룡": 8071,
      "루": 8072,
      "룩": 8073,
      "룸": 8074,
      "룹": 8075,
      "뤄": 8076,
      "류": 8077,
      "륙": 8078,
      "륜": 8079,
      "륨": 8080,
      "르": 8081,
      "른": 8082,
      "를": 8083,
      "름": 8084,
      "릉": 8085,
      "리": 8086,
      "릭": 8087,
      "린": 8088,
      "릴": 8089,
      "림": 8090,
      "립": 8091,
      "릿": 8092,
      "링": 8093,
      "마": 8094,
      "막": 8095,
      "만": 8096,
      "많": 8097,
      "말": 8098,
      "맘": 8099,
      "맙": 8100,
      "망": 8101,
      "매": 8102,
      "맥": 8103,
      "맨": 8104,
      "맷": 8105,
      "맹": 8106,
      "머": 8107,
      "먹": 8108,
      "먼": 8109,
      "멈": 8110,
      "멋": 8111,
      "메": 8112,
      "멜": 8113,
      "멤": 8114,
      "며": 8115,
      "면": 8116,
      "명": 8117,
      "모": 8118,
      "목": 8119,
      "몬": 8120,
      "몰": 8121,
      "몸": 8122,
      "못": 8123,
      "몽": 8124,
      "묘": 8125,
      "무": 8126,
      "묵": 8127,
      "묶": 8128,
      "문": 8129,
      "물": 8130,
      "뭐": 8131,
      "므": 8132,
      "미": 8133,
      "믹": 8134,
      "민": 8135,
      "믿": 8136,
      "밀": 8137,
      "밍": 8138,
      "및": 8139,
      "바": 8140,
      "박": 8141,
      "밖": 8142,
      "반": 8143,
      "받": 8144,
      "발": 8145,
      "밝": 8146,
      "밟": 8147,
      "밤": 8148,
      "밥": 8149,
      "방": 8150,
      "밭": 8151,
      "배": 8152,
      "백": 8153,
      "밴": 8154,
      "뱃": 8155,
      "뱱": 8156,
      "버": 8157,
      "번": 8158,
      "벌": 8159,
      "범": 8160,
      "법": 8161,
      "베": 8162,
      "벨": 8163,
      "벳": 8164,
      "벽": 8165,
      "변": 8166,
      "별": 8167,
      "병": 8168,
      "보": 8169,
      "복": 8170,
      "볶": 8171,
      "본": 8172,
      "볼": 8173,
      "봄": 8174,
      "봇": 8175,
      "봉": 8176,
      "봐": 8177,
      "부": 8178,
      "북": 8179,
      "분": 8180,
      "불": 8181,
      "붉": 8182,
      "붐": 8183,
      "붕": 8184,
      "붙": 8185,
      "브": 8186,
      "븐": 8187,
      "블": 8188,
      "비": 8189,
      "빅": 8190,
      "빈": 8191,
      "빌": 8192,
      "빔": 8193,
      "빗": 8194,
      "빙": 8195,
      "빛": 8196,
      "빠": 8197,
      "빤": 8198,
      "빨": 8199,
      "빵": 8200,
      "뻐": 8201,
      "뿌": 8202,
      "뿐": 8203,
      "뿔": 8204,
      "쁘": 8205,
      "쁜": 8206,
      "쁨": 8207,
      "사": 8208,
      "삭": 8209,
      "산": 8210,
      "살": 8211,
      "삼": 8212,
      "상": 8213,
      "새": 8214,
      "색": 8215,
      "샐": 8216,
      "생": 8217,
      "샤": 8218,
      "샵": 8219,
      "샹": 8220,
      "섀": 8221,
      "서": 8222,
      "석": 8223,
      "선": 8224,
      "설": 8225,
      "섬": 8226,
      "섭": 8227,
      "섯": 8228,
      "성": 8229,
      "세": 8230,
      "센": 8231,
      "셈": 8232,
      "셉": 8233,
      "셔": 8234,
      "션": 8235,
      "셜": 8236,
      "셨": 8237,
      "소": 8238,
      "속": 8239,
      "손": 8240,
      "솔": 8241,
      "솜": 8242,
      "송": 8243,
      "솥": 8244,
      "쇄": 8245,
      "쇠": 8246,
      "쇼": 8247,
      "수": 8248,
      "숙": 8249,
      "순": 8250,
      "술": 8251,
      "숨": 8252,
      "숫": 8253,
      "숭": 8254,
      "숲": 8255,
      "쉬": 8256,
      "슈": 8257,
      "슘": 8258,
      "스": 8259,
      "슨": 8260,
      "슬": 8261,
      "슴": 8262,
      "습": 8263,
      "승": 8264,
      "시": 8265,
      "식": 8266,
      "신": 8267,
      "실": 8268,
      "심": 8269,
      "십": 8270,
      "싱": 8271,
      "싶": 8272,
      "싸": 8273,
      "쌍": 8274,
      "쌓": 8275,
      "써": 8276,
      "썸": 8277,
      "쏘": 8278,
      "쏴": 8279,
      "쓰": 8280,
      "쓸": 8281,
      "씀": 8282,
      "씨": 8283,
      "씩": 8284,
      "씬": 8285,
      "아": 8286,
      "악": 8287,
      "안": 8288,
      "앉": 8289,
      "않": 8290,
      "알": 8291,
      "암": 8292,
      "압": 8293,
      "았": 8294,
      "앙": 8295,
      "앞": 8296,
      "애": 8297,
      "앨": 8298,
      "앱": 8299,
      "야": 8300,
      "약": 8301,
      "얀": 8302,
      "얇": 8303,
      "양": 8304,
      "얘": 8305,
      "어": 8306,
      "억": 8307,
      "언": 8308,
      "얻": 8309,
      "얼": 8310,
      "업": 8311,
      "없": 8312,
      "엇": 8313,
      "었": 8314,
      "에": 8315,
      "엑": 8316,
      "엔": 8317,
      "엘": 8318,
      "엠": 8319,
      "여": 8320,
      "역": 8321,
      "연": 8322,
      "열": 8323,
      "염": 8324,
      "엽": 8325,
      "엿": 8326,
      "였": 8327,
      "영": 8328,
      "예": 8329,
      "옛": 8330,
      "오": 8331,
      "옥": 8332,
      "온": 8333,
      "올": 8334,
      "옹": 8335,
      "와": 8336,
      "완": 8337,
      "왔": 8338,
      "왕": 8339,
      "왜": 8340,
      "외": 8341,
      "요": 8342,
      "욕": 8343,
      "욘": 8344,
      "용": 8345,
      "우": 8346,
      "욱": 8347,
      "운": 8348,
      "울": 8349,
      "움": 8350,
      "웃": 8351,
      "웅": 8352,
      "워": 8353,
      "원": 8354,
      "월": 8355,
      "웠": 8356,
      "웨": 8357,
      "웬": 8358,
      "웰": 8359,
      "웹": 8360,
      "위": 8361,
      "윈": 8362,
      "윜": 8363,
      "유": 8364,
      "육": 8365,
      "윤": 8366,
      "율": 8367,
      "융": 8368,
      "으": 8369,
      "은": 8370,
      "을": 8371,
      "음": 8372,
      "읍": 8373,
      "응": 8374,
      "의": 8375,
      "이": 8376,
      "익": 8377,
      "인": 8378,
      "일": 8379,
      "잃": 8380,
      "임": 8381,
      "입": 8382,
      "있": 8383,
      "잉": 8384,
      "잊": 8385,
      "잎": 8386,
      "자": 8387,
      "작": 8388,
      "잔": 8389,
      "잘": 8390,
      "잠": 8391,
      "잡": 8392,
      "장": 8393,
      "재": 8394,
      "쟁": 8395,
      "쟈": 8396,
      "쟌": 8397,
      "저": 8398,
      "적": 8399,
      "전": 8400,
      "절": 8401,
      "젊": 8402,
      "점": 8403,
      "접": 8404,
      "정": 8405,
      "제": 8406,
      "젝": 8407,
      "젠": 8408,
      "젤": 8409,
      "져": 8410,
      "졌": 8411,
      "조": 8412,
      "족": 8413,
      "존": 8414,
      "좀": 8415,
      "좁": 8416,
      "종": 8417,
      "좋": 8418,
      "좌": 8419,
      "죄": 8420,
      "죠": 8421,
      "죤": 8422,
      "주": 8423,
      "죽": 8424,
      "준": 8425,
      "줄": 8426,
      "중": 8427,
      "줘": 8428,
      "쥔": 8429,
      "쥬": 8430,
      "즈": 8431,
      "즉": 8432,
      "즌": 8433,
      "즐": 8434,
      "증": 8435,
      "지": 8436,
      "직": 8437,
      "진": 8438,
      "질": 8439,
      "짐": 8440,
      "집": 8441,
      "짓": 8442,
      "징": 8443,
      "짱": 8444,
      "째": 8445,
      "쩌": 8446,
      "쩔": 8447,
      "쪽": 8448,
      "쫄": 8449,
      "찌": 8450,
      "차": 8451,
      "착": 8452,
      "찬": 8453,
      "찰": 8454,
      "참": 8455,
      "창": 8456,
      "찾": 8457,
      "채": 8458,
      "책": 8459,
      "챔": 8460,
      "처": 8461,
      "척": 8462,
      "천": 8463,
      "철": 8464,
      "첨": 8465,
      "첩": 8466,
      "첫": 8467,
      "청": 8468,
      "체": 8469,
      "쳐": 8470,
      "초": 8471,
      "촉": 8472,
      "촌": 8473,
      "총": 8474,
      "촬": 8475,
      "최": 8476,
      "쵸": 8477,
      "추": 8478,
      "축": 8479,
      "춘": 8480,
      "출": 8481,
      "춤": 8482,
      "춥": 8483,
      "충": 8484,
      "취": 8485,
      "츠": 8486,
      "측": 8487,
      "층": 8488,
      "치": 8489,
      "친": 8490,
      "칠": 8491,
      "칡": 8492,
      "침": 8493,
      "칩": 8494,
      "칭": 8495,
      "카": 8496,
      "칼": 8497,
      "캉": 8498,
      "캐": 8499,
      "캔": 8500,
      "캠": 8501,
      "캡": 8502,
      "캥": 8503,
      "커": 8504,
      "컨": 8505,
      "컬": 8506,
      "컴": 8507,
      "컸": 8508,
      "케": 8509,
      "켈": 8510,
      "켓": 8511,
      "켜": 8512,
      "켰": 8513,
      "코": 8514,
      "콘": 8515,
      "콜": 8516,
      "콩": 8517,
      "콰": 8518,
      "쾌": 8519,
      "쿠": 8520,
      "쿤": 8521,
      "쿵": 8522,
      "퀴": 8523,
      "크": 8524,
      "큰": 8525,
      "클": 8526,
      "키": 8527,
      "킨": 8528,
      "킬": 8529,
      "킴": 8530,
      "킹": 8531,
      "타": 8532,
      "탁": 8533,
      "탄": 8534,
      "탈": 8535,
      "탑": 8536,
      "탕": 8537,
      "태": 8538,
      "택": 8539,
      "터": 8540,
      "턴": 8541,
      "털": 8542,
      "테": 8543,
      "텐": 8544,
      "텔": 8545,
      "템": 8546,
      "토": 8547,
      "톤": 8548,
      "톱": 8549,
      "통": 8550,
      "투": 8551,
      "툰": 8552,
      "튀": 8553,
      "트": 8554,
      "특": 8555,
      "틀": 8556,
      "틋": 8557,
      "티": 8558,
      "틴": 8559,
      "틸": 8560,
      "팀": 8561,
      "팅": 8562,
      "파": 8563,
      "판": 8564,
      "팔": 8565,
      "패": 8566,
      "팩": 8567,
      "팬": 8568,
      "팸": 8569,
      "퍼": 8570,
      "페": 8571,
      "펙": 8572,
      "펜": 8573,
      "편": 8574,
      "평": 8575,
      "폐": 8576,
      "포": 8577,
      "폭": 8578,
      "폰": 8579,
      "폴": 8580,
      "폼": 8581,
      "표": 8582,
      "푸": 8583,
      "푼": 8584,
      "풀": 8585,
      "품": 8586,
      "풍": 8587,
      "퓨": 8588,
      "프": 8589,
      "플": 8590,
      "픔": 8591,
      "피": 8592,
      "픽": 8593,
      "필": 8594,
      "핑": 8595,
      "하": 8596,
      "학": 8597,
      "한": 8598,
      "할": 8599,
      "함": 8600,
      "합": 8601,
      "항": 8602,
      "해": 8603,
      "핵": 8604,
      "핸": 8605,
      "햇": 8606,
      "했": 8607,
      "행": 8608,
      "향": 8609,
      "허": 8610,
      "헌": 8611,
      "험": 8612,
      "헤": 8613,
      "헨": 8614,
      "혀": 8615,
      "혁": 8616,
      "현": 8617,
      "혈": 8618,
      "협": 8619,
      "형": 8620,
      "혜": 8621,
      "호": 8622,
      "혹": 8623,
      "혼": 8624,
      "홀": 8625,
      "홈": 8626,
      "홍": 8627,
      "화": 8628,
      "확": 8629,
      "환": 8630,
      "활": 8631,
      "황": 8632,
      "회": 8633,
      "획": 8634,
      "횡": 8635,
      "효": 8636,
      "후": 8637,
      "훈": 8638,
      "훨": 8639,
      "휘": 8640,
      "휴": 8641,
      "흉": 8642,
      "흐": 8643,
      "흑": 8644,
      "흔": 8645,
      "흘": 8646,
      "흠": 8647,
      "흥": 8648,
      "희": 8649,
      "히": 8650,
      "힐": 8651,
      "힘": 8652,
      "": 8653,
      "": 8654,
      "": 8655,
      "": 8656,
      "": 8657,
      "": 8658,
      "": 8659,
      "": 8660,
      "": 8661,
      "": 8662,
      "": 8663,
      "": 8664,
      "": 8665,
      "": 8666,
      "": 8667,
      "": 8668,
      "": 8669,
      "": 8670,
      "": 8671,
      "": 8672,
      "": 8673,
      "": 8674,
      "": 8675,
      "": 8676,
      "": 8677,
      "": 8678,
      "": 8679,
      "": 8680,
      "": 8681,
      "": 8682,
      "": 8683,
      "": 8684,
      "": 8685,
      "": 8686,
      "": 8687,
      "": 8688,
      "": 8689,
      "": 8690,
      "": 8691,
      "": 8692,
      "": 8693,
      "": 8694,
      "": 8695,
      "": 8696,
      "": 8697,
      "": 8698,
      "": 8699,
      "": 8700,
      "": 8701,
      "": 8702,
      "": 8703,
      "": 8704,
      "": 8705,
      "": 8706,
      "": 8707,
      "": 8708,
      "": 8709,
      "": 8710,
      "": 8711,
      "": 8712,
      "": 8713,
      "": 8714,
      "": 8715,
      "": 8716,
      "": 8717,
      "": 8718,
      "": 8719,
      "": 8720,
      "": 8721,
      "": 8722,
      "": 8723,
      "": 8724,
      "": 8725,
      "": 8726,
      "": 8727,
      "": 8728,
      "": 8729,
      "": 8730,
      "": 8731,
      "": 8732,
      "": 8733,
      "": 8734,
      "": 8735,
      "": 8736,
      "": 8737,
      "": 8738,
      "": 8739,
      "": 8740,
      "": 8741,
      "": 8742,
      "": 8743,
      "": 8744,
      "": 8745,
      "": 8746,
      "": 8747,
      "": 8748,
      "": 8749,
      "": 8750,
      "": 8751,
      "": 8752,
      "": 8753,
      "": 8754,
      "": 8755,
      "": 8756,
      "": 8757,
      "": 8758,
      "": 8759,
      "": 8760,
      "": 8761,
      "": 8762,
      "": 8763,
      "": 8764,
      "": 8765,
      "": 8766,
      "": 8767,
      "": 8768,
      "": 8769,
      "": 8770,
      "": 8771,
      "": 8772,
      "": 8773,
      "": 8774,
      "": 8775,
      "": 8776,
      "": 8777,
      "": 8778,
      "": 8779,
      "": 8780,
      "": 8781,
      "": 8782,
      "": 8783,
      "": 8784,
      "": 8785,
      "": 8786,
      "": 8787,
      "": 8788,
      "": 8789,
      "": 8790,
      "": 8791,
      "": 8792,
      "": 8793,
      "": 8794,
      "": 8795,
      "": 8796,
      "": 8797,
      "": 8798,
      "": 8799,
      "": 8800,
      "": 8801,
      "": 8802,
      "": 8803,
      "": 8804,
      "": 8805,
      "": 8806,
      "": 8807,
      "": 8808,
      "": 8809,
      "": 8810,
      "": 8811,
      "": 8812,
      "": 8813,
      "": 8814,
      "": 8815,
      "": 8816,
      "": 8817,
      "": 8818,
      "": 8819,
      "": 8820,
      "": 8821,
      "": 8822,
      "": 8823,
      "": 8824,
      "": 8825,
      "": 8826,
      "": 8827,
      "": 8828,
      "": 8829,
      "": 8830,
      "": 8831,
      "": 8832,
      "": 8833,
      "": 8834,
      "": 8835,
      "": 8836,
      "": 8837,
      "": 8838,
      "": 8839,
      "": 8840,
      "": 8841,
      "": 8842,
      "": 8843,
      "": 8844,
      "": 8845,
      "": 8846,
      "": 8847,
      "": 8848,
      "": 8849,
      "": 8850,
      "": 8851,
      "": 8852,
      "": 8853,
      "": 8854,
      "": 8855,
      "": 8856,
      "": 8857,
      "": 8858,
      "": 8859,
      "": 8860,
      "": 8861,
      "": 8862,
      "": 8863,
      "": 8864,
      "": 8865,
      "": 8866,
      "": 8867,
      "": 8868,
      "": 8869,
      "": 8870,
      "": 8871,
      "": 8872,
      "": 8873,
      "": 8874,
      "": 8875,
      "": 8876,
      "": 8877,
      "": 8878,
      "": 8879,
      "": 8880,
      "": 8881,
      "": 8882,
      "": 8883,
      "": 8884,
      "": 8885,
      "": 8886,
      "": 8887,
      "": 8888,
      "": 8889,
      "": 8890,
      "": 8891,
      "": 8892,
      "": 8893,
      "": 8894,
      "": 8895,
      "": 8896,
      "": 8897,
      "": 8898,
      "": 8899,
      "": 8900,
      "": 8901,
      "": 8902,
      "": 8903,
      "": 8904,
      "": 8905,
      "": 8906,
      "": 8907,
      "": 8908,
      "": 8909,
      "": 8910,
      "": 8911,
      "": 8912,
      "": 8913,
      "": 8914,
      "": 8915,
      "": 8916,
      "": 8917,
      "": 8918,
      "": 8919,
      "": 8920,
      "": 8921,
      "": 8922,
      "": 8923,
      "": 8924,
      "": 8925,
      "": 8926,
      "": 8927,
      "": 8928,
      "": 8929,
      "": 8930,
      "": 8931,
      "": 8932,
      "": 8933,
      "": 8934,
      "": 8935,
      "": 8936,
      "": 8937,
      "": 8938,
      "": 8939,
      "": 8940,
      "": 8941,
      "": 8942,
      "": 8943,
      "": 8944,
      "": 8945,
      "": 8946,
      "": 8947,
      "": 8948,
      "": 8949,
      "": 8950,
      "": 8951,
      "": 8952,
      "": 8953,
      "": 8954,
      "": 8955,
      "": 8956,
      "": 8957,
      "": 8958,
      "": 8959,
      "": 8960,
      "": 8961,
      "": 8962,
      "": 8963,
      "": 8964,
      "": 8965,
      "": 8966,
      "": 8967,
      "": 8968,
      "": 8969,
      "": 8970,
      "": 8971,
      "": 8972,
      "": 8973,
      "": 8974,
      "": 8975,
      "": 8976,
      "": 8977,
      "": 8978,
      "": 8979,
      "": 8980,
      "": 8981,
      "": 8982,
      "": 8983,
      "": 8984,
      "": 8985,
      "": 8986,
      "": 8987,
      "": 8988,
      "": 8989,
      "": 8990,
      "": 8991,
      "": 8992,
      "": 8993,
      "": 8994,
      "": 8995,
      "": 8996,
      "": 8997,
      "": 8998,
      "": 8999,
      "": 9000,
      "": 9001,
      "": 9002,
      "": 9003,
      "": 9004,
      "": 9005,
      "": 9006,
      "": 9007,
      "": 9008,
      "": 9009,
      "": 9010,
      "": 9011,
      "": 9012,
      "": 9013,
      "": 9014,
      "": 9015,
      "": 9016,
      "": 9017,
      "": 9018,
      "": 9019,
      "": 9020,
      "": 9021,
      "": 9022,
      "": 9023,
      "": 9024,
      "": 9025,
      "": 9026,
      "": 9027,
      "": 9028,
      "": 9029,
      "": 9030,
      "": 9031,
      "": 9032,
      "": 9033,
      "": 9034,
      "": 9035,
      "": 9036,
      "": 9037,
      "﨑": 9038,
      "﴾": 9039,
      "﴿": 9040,
      "︎": 9041,
      "️": 9042,
      "︠": 9043,
      "︡": 9044,
      "﻿": 9045,
      "￼": 9046,
      "�": 9047,
      "𐊠": 9048,
      "𐊢": 9049,
      "𐊩": 9050,
      "𐊪": 9051,
      "𐊫": 9052,
      "𐊭": 9053,
      "𐊰": 9054,
      "𐊳": 9055,
      "𐊴": 9056,
      "𐊵": 9057,
      "𐊸": 9058,
      "𐋈": 9059,
      "𐌰": 9060,
      "𐌱": 9061,
      "𐌲": 9062,
      "𐌸": 9063,
      "𐌹": 9064,
      "𐌻": 9065,
      "𐍂": 9066,
      "𐍃": 9067,
      "𐎍": 9068,
      "𐎛": 9069,
      "𐎠": 9070,
      "𐎡": 9071,
      "𐎢": 9072,
      "𐎣": 9073,
      "𐎤": 9074,
      "𐎫": 9075,
      "𐎭": 9076,
      "𐎱": 9077,
      "𐎹": 9078,
      "𐎼": 9079,
      "𐎽": 9080,
      "𐎿": 9081,
      "𐏁": 9082,
      "𐣠": 9083,
      "𐣢": 9084,
      "𐣣": 9085,
      "𐣥": 9086,
      "𐣩": 9087,
      "𐣪": 9088,
      "𐣫": 9089,
      "𐣬": 9090,
      "𐣴": 9091,
      "𐤀": 9092,
      "𐤁": 9093,
      "𐤂": 9094,
      "𐤇": 9095,
      "𐤋": 9096,
      "𐤌": 9097,
      "𐤍": 9098,
      "𐤏": 9099,
      "𐤓": 9100,
      "𐤧": 9101,
      "𐩡": 9102,
      "𐩪": 9103,
      "𐩱": 9104,
      "𐩵": 9105,
      "𐫄": 9106,
      "𐫇": 9107,
      "𐫗": 9108,
      "𐫢": 9109,
      "𐭀": 9110,
      "𐭅": 9111,
      "𐭇": 9112,
      "𐭉": 9113,
      "𐭊": 9114,
      "𐭌": 9115,
      "𐭓": 9116,
      "𐭔": 9117,
      "𐭠": 9118,
      "𐭥": 9119,
      "𐭧": 9120,
      "𐭫": 9121,
      "𐭭": 9122,
      "𐭰": 9123,
      "𐭱": 9124,
      "𐭲": 9125,
      "𐰏": 9126,
      "𐰢": 9127,
      "𐰤": 9128,
      "𐰼": 9129,
      "𑂏": 9130,
      "𑂗": 9131,
      "𑂝": 9132,
      "𑂪": 9133,
      "𑂰": 9134,
      "𑂲": 9135,
      "𑂳": 9136,
      "𑂹": 9137,
      "𑇔": 9138,
      "𒀀": 9139,
      "𒀊": 9140,
      "𒀭": 9141,
      "𒁍": 9142,
      "𒁺": 9143,
      "𒂗": 9144,
      "𒃶": 9145,
      "𒄩": 9146,
      "𒅗": 9147,
      "𒆷": 9148,
      "𒈹": 9149,
      "𒈾": 9150,
      "𒉿": 9151,
      "𒊒": 9152,
      "𒊩": 9153,
      "𒋫": 9154,
      "𒌆": 9155,
      "𒍝": 9156,
      "𓄤": 9157,
      "𛀁": 9158,
      "𝄞": 9159,
      "𝑕": 9160,
      "𝼅": 9161,
      "𝼏": 9162,
      "𝼝": 9163,
      "🄎": 9164,
      "🅭": 9165,
      "🅯": 9166,
      "🅰": 9167,
      "🅱": 9168,
      "🅲": 9169,
      "🅴": 9170,
      "🅵": 9171,
      "🅶": 9172,
      "🅷": 9173,
      "🅸": 9174,
      "🅺": 9175,
      "🅻": 9176,
      "🅼": 9177,
      "🅽": 9178,
      "🅾": 9179,
      "🆂": 9180,
      "🆃": 9181,
      "🆄": 9182,
      "🆆": 9183,
      "🆈": 9184,
      "🆓": 9185,
      "🆕": 9186,
      "🆘": 9187,
      "🆙": 9188,
      "🆚": 9189,
      "🇦": 9190,
      "🇧": 9191,
      "🇨": 9192,
      "🇪": 9193,
      "🇬": 9194,
      "🇭": 9195,
      "🇮": 9196,
      "🇯": 9197,
      "🇱": 9198,
      "🇲": 9199,
      "🇳": 9200,
      "🇴": 9201,
      "🇵": 9202,
      "🇷": 9203,
      "🇸": 9204,
      "🇹": 9205,
      "🇺": 9206,
      "🇼": 9207,
      "🇽": 9208,
      "🇾": 9209,
      "🇿": 9210,
      "🌄": 9211,
      "🌅": 9212,
      "🌈": 9213,
      "🌊": 9214,
      "🌋": 9215,
      "🌌": 9216,
      "🌍": 9217,
      "🌎": 9218,
      "🌏": 9219,
      "🌐": 9220,
      "🌕": 9221,
      "🌗": 9222,
      "🌙": 9223,
      "🌚": 9224,
      "🌝": 9225,
      "🌞": 9226,
      "🌟": 9227,
      "🌠": 9228,
      "🌤": 9229,
      "🌦": 9230,
      "🌧": 9231,
      "🌪": 9232,
      "🌮": 9233,
      "🌯": 9234,
      "🌱": 9235,
      "🌲": 9236,
      "🌳": 9237,
      "🌴": 9238,
      "🌵": 9239,
      "🌶": 9240,
      "🌷": 9241,
      "🌸": 9242,
      "🌹": 9243,
      "🌺": 9244,
      "🌻": 9245,
      "🌼": 9246,
      "🌽": 9247,
      "🌾": 9248,
      "🌿": 9249,
      "🍀": 9250,
      "🍁": 9251,
      "🍂": 9252,
      "🍃": 9253,
      "🍅": 9254,
      "🍆": 9255,
      "🍇": 9256,
      "🍉": 9257,
      "🍊": 9258,
      "🍋": 9259,
      "🍌": 9260,
      "🍍": 9261,
      "🍎": 9262,
      "🍏": 9263,
      "🍑": 9264,
      "🍒": 9265,
      "🍓": 9266,
      "🍔": 9267,
      "🍕": 9268,
      "🍖": 9269,
      "🍗": 9270,
      "🍙": 9271,
      "🍜": 9272,
      "🍝": 9273,
      "🍞": 9274,
      "🍟": 9275,
      "🍠": 9276,
      "🍤": 9277,
      "🍦": 9278,
      "🍩": 9279,
      "🍪": 9280,
      "🍫": 9281,
      "🍬": 9282,
      "🍭": 9283,
      "🍰": 9284,
      "🍱": 9285,
      "🍳": 9286,
      "🍷": 9287,
      "🍸": 9288,
      "🍹": 9289,
      "🍺": 9290,
      "🍻": 9291,
      "🍼": 9292,
      "🍽": 9293,
      "🍾": 9294,
      "🍿": 9295,
      "🎀": 9296,
      "🎁": 9297,
      "🎂": 9298,
      "🎃": 9299,
      "🎄": 9300,
      "🎅": 9301,
      "🎆": 9302,
      "🎇": 9303,
      "🎈": 9304,
      "🎉": 9305,
      "🎊": 9306,
      "🎓": 9307,
      "🎖": 9308,
      "🎗": 9309,
      "🎙": 9310,
      "🎞": 9311,
      "🎟": 9312,
      "🎣": 9313,
      "🎤": 9314,
      "🎥": 9315,
      "🎧": 9316,
      "🎨": 9317,
      "🎩": 9318,
      "🎬": 9319,
      "🎭": 9320,
      "🎮": 9321,
      "🎯": 9322,
      "🎵": 9323,
      "🎶": 9324,
      "🎷": 9325,
      "🎸": 9326,
      "🎹": 9327,
      "🎺": 9328,
      "🎻": 9329,
      "🎼": 9330,
      "🎽": 9331,
      "🎾": 9332,
      "🎿": 9333,
      "🏀": 9334,
      "🏁": 9335,
      "🏃": 9336,
      "🏄": 9337,
      "🏅": 9338,
      "🏆": 9339,
      "🏊": 9340,
      "🏋": 9341,
      "🏎": 9342,
      "🏖": 9343,
      "🏗": 9344,
      "🏘": 9345,
      "🏙": 9346,
      "🏜": 9347,
      "🏝": 9348,
      "🏞": 9349,
      "🏟": 9350,
      "🏠": 9351,
      "🏡": 9352,
      "🏥": 9353,
      "🏧": 9354,
      "🏨": 9355,
      "🏫": 9356,
      "🏰": 9357,
      "🏳": 9358,
      "🏵": 9359,
      "🏹": 9360,
      "🏻": 9361,
      "🏼": 9362,
      "🏽": 9363,
      "🏾": 9364,
      "🏿": 9365,
      "🐂": 9366,
      "🐃": 9367,
      "🐅": 9368,
      "🐆": 9369,
      "🐈": 9370,
      "🐊": 9371,
      "🐌": 9372,
      "🐍": 9373,
      "🐎": 9374,
      "🐏": 9375,
      "🐐": 9376,
      "🐑": 9377,
      "🐒": 9378,
      "🐓": 9379,
      "🐔": 9380,
      "🐕": 9381,
      "🐛": 9382,
      "🐝": 9383,
      "🐞": 9384,
      "🐟": 9385,
      "🐠": 9386,
      "🐢": 9387,
      "🐣": 9388,
      "🐦": 9389,
      "🐰": 9390,
      "🐱": 9391,
      "🐴": 9392,
      "🐶": 9393,
      "🐷": 9394,
      "🐺": 9395,
      "🐻": 9396,
      "🐼": 9397,
      "🐽": 9398,
      "🐾": 9399,
      "🐿": 9400,
      "👀": 9401,
      "👁": 9402,
      "👃": 9403,
      "👄": 9404,
      "👅": 9405,
      "👆": 9406,
      "👇": 9407,
      "👈": 9408,
      "👉": 9409,
      "👊": 9410,
      "👋": 9411,
      "👌": 9412,
      "👍": 9413,
      "👎": 9414,
      "👏": 9415,
      "👐": 9416,
      "👑": 9417,
      "👕": 9418,
      "👗": 9419,
      "👙": 9420,
      "👜": 9421,
      "👠": 9422,
      "👣": 9423,
      "👤": 9424,
      "👥": 9425,
      "👦": 9426,
      "👧": 9427,
      "👨": 9428,
      "👩": 9429,
      "👪": 9430,
      "👫": 9431,
      "👭": 9432,
      "👮": 9433,
      "👯": 9434,
      "👰": 9435,
      "👱": 9436,
      "👴": 9437,
      "👵": 9438,
      "👶": 9439,
      "👷": 9440,
      "👸": 9441,
      "👻": 9442,
      "👽": 9443,
      "👿": 9444,
      "💀": 9445,
      "💁": 9446,
      "💃": 9447,
      "💄": 9448,
      "💅": 9449,
      "💆": 9450,
      "💇": 9451,
      "💉": 9452,
      "💊": 9453,
      "💋": 9454,
      "💌": 9455,
      "💍": 9456,
      "💎": 9457,
      "💏": 9458,
      "💐": 9459,
      "💑": 9460,
      "💒": 9461,
      "💓": 9462,
      "💔": 9463,
      "💕": 9464,
      "💖": 9465,
      "💗": 9466,
      "💘": 9467,
      "💙": 9468,
      "💚": 9469,
      "💛": 9470,
      "💜": 9471,
      "💝": 9472,
      "💞": 9473,
      "💟": 9474,
      "💠": 9475,
      "💡": 9476,
      "💢": 9477,
      "💣": 9478,
      "💥": 9479,
      "💦": 9480,
      "💨": 9481,
      "💩": 9482,
      "💪": 9483,
      "💫": 9484,
      "💬": 9485,
      "💭": 9486,
      "💯": 9487,
      "💰": 9488,
      "💱": 9489,
      "💲": 9490,
      "💳": 9491,
      "💵": 9492,
      "💸": 9493,
      "💺": 9494,
      "💻": 9495,
      "💼": 9496,
      "💿": 9497,
      "📀": 9498,
      "📄": 9499,
      "📅": 9500,
      "📆": 9501,
      "📈": 9502,
      "📉": 9503,
      "📊": 9504,
      "📋": 9505,
      "📌": 9506,
      "📍": 9507,
      "📑": 9508,
      "📒": 9509,
      "📕": 9510,
      "📖": 9511,
      "📘": 9512,
      "📙": 9513,
      "📚": 9514,
      "📜": 9515,
      "📝": 9516,
      "📞": 9517,
      "📠": 9518,
      "📡": 9519,
      "📢": 9520,
      "📣": 9521,
      "📥": 9522,
      "📦": 9523,
      "📧": 9524,
      "📨": 9525,
      "📩": 9526,
      "📬": 9527,
      "📮": 9528,
      "📯": 9529,
      "📰": 9530,
      "📱": 9531,
      "📲": 9532,
      "📳": 9533,
      "📷": 9534,
      "📸": 9535,
      "📹": 9536,
      "📺": 9537,
      "📻": 9538,
      "📽": 9539,
      "📿": 9540,
      "🔁": 9541,
      "🔄": 9542,
      "🔅": 9543,
      "🔊": 9544,
      "🔋": 9545,
      "🔍": 9546,
      "🔎": 9547,
      "🔒": 9548,
      "🔔": 9549,
      "🔗": 9550,
      "🔘": 9551,
      "🔙": 9552,
      "🔛": 9553,
      "🔜": 9554,
      "🔝": 9555,
      "🔞": 9556,
      "🔟": 9557,
      "🔥": 9558,
      "🔨": 9559,
      "🔪": 9560,
      "🔫": 9561,
      "🔬": 9562,
      "🔮": 9563,
      "🔴": 9564,
      "🔵": 9565,
      "🔶": 9566,
      "🔷": 9567,
      "🔸": 9568,
      "🔹": 9569,
      "🔺": 9570,
      "🔻": 9571,
      "🕊": 9572,
      "🕌": 9573,
      "🕒": 9574,
      "🕗": 9575,
      "🕯": 9576,
      "🕹": 9577,
      "🕺": 9578,
      "🖋": 9579,
      "🖌": 9580,
      "🖒": 9581,
      "🖕": 9582,
      "🖤": 9583,
      "🖥": 9584,
      "🖨": 9585,
      "🖼": 9586,
      "🗑": 9587,
      "🗒": 9588,
      "🗓": 9589,
      "🗡": 9590,
      "🗣": 9591,
      "🗯": 9592,
      "🗳": 9593,
      "🗺": 9594,
      "😀": 9595,
      "😁": 9596,
      "😂": 9597,
      "😃": 9598,
      "😄": 9599,
      "😅": 9600,
      "😆": 9601,
      "😇": 9602,
      "😈": 9603,
      "😉": 9604,
      "😊": 9605,
      "😋": 9606,
      "😌": 9607,
      "😍": 9608,
      "😎": 9609,
      "😏": 9610,
      "😐": 9611,
      "😑": 9612,
      "😒": 9613,
      "😓": 9614,
      "😔": 9615,
      "😕": 9616,
      "😖": 9617,
      "😗": 9618,
      "😘": 9619,
      "😙": 9620,
      "😚": 9621,
      "😛": 9622,
      "😜": 9623,
      "😝": 9624,
      "😞": 9625,
      "😟": 9626,
      "😠": 9627,
      "😡": 9628,
      "😢": 9629,
      "😣": 9630,
      "😤": 9631,
      "😥": 9632,
      "😦": 9633,
      "😧": 9634,
      "😨": 9635,
      "😩": 9636,
      "😪": 9637,
      "😫": 9638,
      "😬": 9639,
      "😭": 9640,
      "😮": 9641,
      "😯": 9642,
      "😰": 9643,
      "😱": 9644,
      "😲": 9645,
      "😳": 9646,
      "😴": 9647,
      "😵": 9648,
      "😶": 9649,
      "😷": 9650,
      "😸": 9651,
      "😹": 9652,
      "😺": 9653,
      "😻": 9654,
      "😼": 9655,
      "😽": 9656,
      "😾": 9657,
      "😿": 9658,
      "🙀": 9659,
      "🙁": 9660,
      "🙂": 9661,
      "🙃": 9662,
      "🙄": 9663,
      "🙅": 9664,
      "🙆": 9665,
      "🙇": 9666,
      "🙈": 9667,
      "🙉": 9668,
      "🙊": 9669,
      "🙋": 9670,
      "🙌": 9671,
      "🙍": 9672,
      "🙎": 9673,
      "🙏": 9674,
      "🚀": 9675,
      "🚂": 9676,
      "🚉": 9677,
      "🚒": 9678,
      "🚓": 9679,
      "🚔": 9680,
      "🚘": 9681,
      "🚙": 9682,
      "🚚": 9683,
      "🚣": 9684,
      "🚤": 9685,
      "🚥": 9686,
      "🚧": 9687,
      "🚨": 9688,
      "🚩": 9689,
      "🚫": 9690,
      "🚲": 9691,
      "🚸": 9692,
      "🚿": 9693,
      "🛁": 9694,
      "🛅": 9695,
      "🛋": 9696,
      "🛍": 9697,
      "🛐": 9698,
      "🛑": 9699,
      "🛒": 9700,
      "🛠": 9701,
      "🛡": 9702,
      "🛣": 9703,
      "🛥": 9704,
      "🛪": 9705,
      "🛵": 9706,
      "🛸": 9707,
      "🟡": 9708,
      "🟢": 9709,
      "🟣": 9710,
      "🟥": 9711,
      "🟦": 9712,
      "🟨": 9713,
      "🤍": 9714,
      "🤎": 9715,
      "🤏": 9716,
      "🤐": 9717,
      "🤑": 9718,
      "🤒": 9719,
      "🤓": 9720,
      "🤔": 9721,
      "🤕": 9722,
      "🤖": 9723,
      "🤗": 9724,
      "🤘": 9725,
      "🤙": 9726,
      "🤛": 9727,
      "🤜": 9728,
      "🤝": 9729,
      "🤞": 9730,
      "🤟": 9731,
      "🤠": 9732,
      "🤡": 9733,
      "🤢": 9734,
      "🤣": 9735,
      "🤤": 9736,
      "🤥": 9737,
      "🤦": 9738,
      "🤧": 9739,
      "🤨": 9740,
      "🤩": 9741,
      "🤪": 9742,
      "🤫": 9743,
      "🤬": 9744,
      "🤭": 9745,
      "🤮": 9746,
      "🤯": 9747,
      "🤰": 9748,
      "🤲": 9749,
      "🤳": 9750,
      "🤵": 9751,
      "🤷": 9752,
      "🤸": 9753,
      "🤼": 9754,
      "🥀": 9755,
      "🥁": 9756,
      "🥂": 9757,
      "🥃": 9758,
      "🥅": 9759,
      "🥇": 9760,
      "🥈": 9761,
      "🥉": 9762,
      "🥊": 9763,
      "🥋": 9764,
      "🥐": 9765,
      "🥑": 9766,
      "🥒": 9767,
      "🥓": 9768,
      "🥕": 9769,
      "🥖": 9770,
      "🥗": 9771,
      "🥚": 9772,
      "🥛": 9773,
      "🥜": 9774,
      "🥝": 9775,
      "🥥": 9776,
      "🥦": 9777,
      "🥩": 9778,
      "🥬": 9779,
      "🥰": 9780,
      "🥱": 9781,
      "🥲": 9782,
      "🥳": 9783,
      "🥴": 9784,
      "🥵": 9785,
      "🥶": 9786,
      "🥸": 9787,
      "🥹": 9788,
      "🥺": 9789,
      "🥼": 9790,
      "🥽": 9791,
      "🦁": 9792,
      "🦄": 9793,
      "🦅": 9794,
      "🦉": 9795,
      "🦋": 9796,
      "🦌": 9797,
      "🦏": 9798,
      "🦜": 9799,
      "🦞": 9800,
      "🦠": 9801,
      "🦯": 9802,
      "🦱": 9803,
      "🦶": 9804,
      "🦷": 9805,
      "🧍": 9806,
      "🧐": 9807,
      "🧑": 9808,
      "🧘": 9809,
      "🧙": 9810,
      "🧚": 9811,
      "🧛": 9812,
      "🧝": 9813,
      "🧠": 9814,
      "🧡": 9815,
      "🧢": 9816,
      "🧤": 9817,
      "🧪": 9818,
      "🧮": 9819,
      "🧲": 9820,
      "🧵": 9821,
      "🧶": 9822,
      "🧸": 9823,
      "🧹": 9824,
      "🧻": 9825,
      "🩹": 9826,
      "🩺": 9827,
      "🪵": 9828,
      "🫠": 9829,
      "🫡": 9830,
      "🫢": 9831,
      "🫣": 9832,
      "🫤": 9833,
      "🫥": 9834,
      "𠯮": 9835,
      "𫗦": 9836,
      "𰀪": 9837,
      "􀃚": 9838,
      "􏰁": 9839,
      "Ġd": 9840,
      "Ġa": 9841,
      "es": 9842,
      "en": 9843,
      "Ġp": 9844,
      "er": 9845,
      "Ġc": 9846,
      "Ġs": 9847,
      "on": 9848,
      "in": 9849,
      "ra": 9850,
      "Ġde": 9851,
      "Ġe": 9852,
      "Ġt": 9853,
      "os": 9854,
      "re": 9855,
      "an": 9856,
      "or": 9857,
      "Ġl": 9858,
      "\n\n": 9859,
      "is": 9860,
      "Ġm": 9861,
      "qu": 9862,
      "as": 9863,
      "ar": 9864,
      "ent": 9865,
      "it": 9866,
      "Ġn": 9867,
      "al": 9868,
      "Ġf": 9869,
      "Ġo": 9870,
      "ĠĠ": 9871,
      "Ġqu": 9872,
      "om": 9873,
      "ad": 9874,
      "ic": 9875,
      "ou": 9876,
      "he": 9877,
      "at": 9878,
      "il": 9879,
      "ão": 9880,
      "el": 9881,
      "ro": 9882,
      "Ġv": 9883,
      "un": 9884,
      "id": 9885,
      "te": 9886,
      "ia": 9887,
      "le": 9888,
      "Ġin": 9889,
      "im": 9890,
      "Ġb": 9891,
      "am": 9892,
      "Ġque": 9893,
      "em": 9894,
      "ol": 9895,
      "est": 9896,
      "Ġcom": 9897,
      "um": 9898,
      "ĠC": 9899,
      "us": 9900,
      "ri": 9901,
      "do": 9902,
      "..": 9903,
      "ĠA": 9904,
      "\n\n\n\n": 9905,
      "Ġcon": 9906,
      "ĠĠĠĠ": 9907,
      "ion": 9908,
      "ut": 9909,
      "Ġse": 9910,
      "Ġre": 9911,
      "Ġg": 9912,
      "ĠS": 9913,
      "Ġdo": 9914,
      "Ġh": 9915,
      "ta": 9916,
      "ção": 9917,
      "Ġthe": 9918,
      "Ġan": 9919,
      "ĠP": 9920,
      "Ġla": 9921,
      "to": 9922,
      "ed": 9923,
      "iv": 9924,
      "ess": 9925,
      "ur": 9926,
      "ara": 9927,
      "et": 9928,
      "ĠM": 9929,
      "ul": 9930,
      "Ġda": 9931,
      "ir": 9932,
      "Ġem": 9933,
      "ec": 9934,
      "ĠE": 9935,
      "ig": 9936,
      "Ġw": 9937,
      "Ġno": 9938,
      "Ġun": 9939,
      "Ġle": 9940,
      "io": 9941,
      "la": 9942,
      "ĠD": 9943,
      "Ġum": 9944,
      "de": 9945,
      "Ġdi": 9946,
      "ente": 9947,
      "Ġr": 9948,
      "Ġen": 9949,
      "ing": 9950,
      "ce": 9951,
      "Ġal": 9952,
      "ais": 9953,
      "Ġj": 9954,
      "ĠT": 9955,
      "ĠI": 9956,
      "Ġof": 9957,
      "Ġto": 9958,
      "Ġsu": 9959,
      "ci": 9960,
      "ado": 9961,
      "ch": 9962,
      "se": 9963,
      "ter": 9964,
      "Ġest": 9965,
      "Ġpro": 9966,
      "Ġé": 9967,
      "Ġpr": 9968,
      "ran": 9969,
      "ĠB": 9970,
      "ĠL": 9971,
      "ant": 9972,
      "Ġpara": 9973,
      "Ġas": 9974,
      "...": 9975,
      "ĠR": 9976,
      "ĠF": 9977,
      "Ġand": 9978,
      "Ġdes": 9979,
      "ist": 9980,
      "Ġet": 9981,
      "av": 9982,
      "ab": 9983,
      "st": 9984,
      "Ġpar": 9985,
      "Ġà": 9986,
      "ac": 9987,
      "Ġper": 9988,
      "ag": 9989,
      "Ġpor": 9990,
      "ação": 9991,
      "ĠN": 9992,
      "ento": 9993,
      "pr": 9994,
      "our": 9995,
      "oc": 9996,
      "Ġil": 9997,
      "Ġex": 9998,
      "Ġes": 9999,
      "iz": 10000,
      "ade": 10001,
      "end": 10002,
      "Ġy": 10003,
      "ĠO": 10004,
      "ie": 10005,
      "ĠG": 10006,
      "Ġfor": 10007,
      "ĠĠĠĠĠĠĠĠ": 10008,
      "ver": 10009,
      "ora": 10010,
      "Ġpo": 10011,
      "ai": 10012,
      "Ġche": 10013,
      "ĠJ": 10014,
      "ica": 10015,
      "ve": 10016,
      "ous": 10017,
      "Ġat": 10018,
      "ada": 10019,
      "da": 10020,
      "ura": 10021,
      "ando": 10022,
      "ont": 10023,
      "me": 10024,
      "oi": 10025,
      "Ġser": 10026,
      "ens": 10027,
      "Ġth": 10028,
      "og": 10029,
      "Ġna": 10030,
      "que": 10031,
      "ot": 10032,
      "Ġuma": 10033,
      "Ġos": 10034,
      "per": 10035,
      "Ġles": 10036,
      "ões": 10037,
      "cia": 10038,
      "ito": 10039,
      "li": 10040,
      "ap": 10041,
      "Ġne": 10042,
      "ma": 10043,
      "ho": 10044,
      "ei": 10045,
      "ĠH": 10046,
      "Ġso": 10047,
      "Ġac": 10048,
      "ĠV": 10049,
      "va": 10050,
      "Ġon": 10051,
      "Ġel": 10052,
      "ers": 10053,
      "Ġch": 10054,
      "idade": 10055,
      "Ġdel": 10056,
      "if": 10057,
      "ort": 10058,
      "ans": 10059,
      "Ġme": 10060,
      "Ġap": 10061,
      "and": 10062,
      "gu": 10063,
      "lo": 10064,
      "iss": 10065,
      "ras": 10066,
      "po": 10067,
      "ud": 10068,
      "Ġpas": 10069,
      "ux": 10070,
      "Ġar": 10071,
      "ui": 10072,
      "ados": 10073,
      "Ġent": 10074,
      "Ġnão": 10075,
      "ere": 10076,
      "Ġcomo": 10077,
      "ido": 10078,
      "co": 10079,
      "Ġcont": 10080,
      "ation": 10081,
      "Ġmais": 10082,
      "Ġdu": 10083,
      "ico": 10084,
      "mo": 10085,
      "Ġim": 10086,
      "Ġdos": 10087,
      "ções": 10088,
      "Ġpel": 10089,
      "ne": 10090,
      "ha": 10091,
      "ti": 10092,
      "pos": 10093,
      "are": 10094,
      "Ġou": 10095,
      "ici": 10096,
      "no": 10097,
      "ib": 10098,
      "ên": 10099,
      "Ġtra": 10100,
      "Ġsi": 10101,
      "Ġpre": 10102,
      "du": 10103,
      "Ġqui": 10104,
      "ĠU": 10105,
      "Ġav": 10106,
      "Ġmo": 10107,
      "res": 10108,
      "Ġor": 10109,
      "ment": 10110,
      "ano": 10111,
      "Ġtem": 10112,
      "oss": 10113,
      "Ġst": 10114,
      "con": 10115,
      "Ġma": 10116,
      "ida": 10117,
      "bl": 10118,
      "esso": 10119,
      "ff": 10120,
      "rio": 10121,
      "Ġpl": 10122,
      "Ġcomp": 10123,
      "Ġfa": 10124,
      "ost": 10125,
      "era": 10126,
      "Ġdis": 10127,
      "ém": 10128,
      "ça": 10129,
      "Ġao": 10130,
      "Ġter": 10131,
      "ores": 10132,
      "ine": 10133,
      "out": 10134,
      "Ġis": 10135,
      "Ġres": 10136,
      "Ġ\n\n": 10137,
      "ge": 10138,
      "Ġam": 10139,
      "ru": 10140,
      "ato": 10141,
      "ante": 10142,
      "ĠIn": 10143,
      "pe": 10144,
      "les": 10145,
      "di": 10146,
      "endo": 10147,
      "vel": 10148,
      "--": 10149,
      "ĠW": 10150,
      "ure": 10151,
      "Ġab": 10152,
      "mente": 10153,
      "ly": 10154,
      "Ġbe": 10155,
      "és": 10156,
      "amente": 10157,
      "Ġsa": 10158,
      "bre": 10159,
      "ons": 10160,
      "for": 10161,
      "Ġnon": 10162,
      "Ġra": 10163,
      "ard": 10164,
      "za": 10165,
      "ate": 10166,
      "Ġ\n\n\n": 10167,
      "Ġfoi": 10168,
      "ite": 10169,
      "ct": 10170,
      "Ġson": 10171,
      "so": 10172,
      "imento": 10173,
      "ria": 10174,
      "Ġco": 10175,
      "ith": 10176,
      "fer": 10177,
      "int": 10178,
      "Ġad": 10179,
      "ência": 10180,
      "ien": 10181,
      "pres": 10182,
      "tre": 10183,
      "ira": 10184,
      "der": 10185,
      "anto": 10186,
      "Ġdas": 10187,
      "Ġje": 10188,
      "Ġpart": 10189,
      "cl": 10190,
      "Ġdans": 10191,
      "\t\t": 10192,
      "pec": 10193,
      "Ġsua": 10194,
      "ual": 10195,
      "ult": 10196,
      "ue": 10197,
      "ina": 10198,
      "ca": 10199,
      "art": 10200,
      "amb": 10201,
      "Ġmu": 10202,
      "ill": 10203,
      "Ġpe": 10204,
      "amento": 10205,
      "pl": 10206,
      "Ġsem": 10207,
      "ust": 10208,
      "gra": 10209,
      "elle": 10210,
      "Ġcons": 10211,
      "Ġpour": 10212,
      "vo": 10213,
      "ber": 10214,
      "Ġout": 10215,
      "Ġce": 10216,
      "che": 10217,
      "Ġaut": 10218,
      "Ġune": 10219,
      "esse": 10220,
      "th": 10221,
      "Ġob": 10222,
      "Ġcas": 10223,
      "ez": 10224,
      "ros": 10225,
      "ign": 10226,
      "au": 10227,
      "Ġhe": 10228,
      "com": 10229,
      "pre": 10230,
      "Ġlo": 10231,
      "Ġqual": 10232,
      "Ġus": 10233,
      "rit": 10234,
      "adas": 10235,
      "Ġinter": 10236,
      "ire": 10237,
      "Ġwith": 10238,
      "go": 10239,
      "Ġthat": 10240,
      "Ġman": 10241,
      "ero": 10242,
      "port": 10243,
      "Ġtr": 10244,
      "Ġele": 10245,
      "ino": 10246,
      "ass": 10247,
      "Ġfr": 10248,
      "Ġcor": 10249,
      "ait": 10250,
      "Ġcol": 10251,
      "Ġass": 10252,
      "ional": 10253,
      "ord": 10254,
      "ins": 10255,
      "Ġau": 10256,
      "Ġwas": 10257,
      "Ġpi": 10258,
      "vi": 10259,
      "Ġpu": 10260,
      "Ġmes": 10261,
      "Ġgran": 10262,
      "ay": 10263,
      "Ġit": 10264,
      "Ġver": 10265,
      "Ġseu": 10266,
      "Ġsur": 10267,
      "urs": 10268,
      "dos": 10269,
      "Ġmar": 10270,
      "Ġentre": 10271,
      "Ġnos": 10272,
      "entes": 10273,
      "up": 10274,
      "Ġwh": 10275,
      "rat": 10276,
      "ista": 10277,
      "Ġcar": 10278,
      "ĠK": 10279,
      "ice": 10280,
      "ier": 10281,
      "Ġplus": 10282,
      "Ġreg": 10283,
      "ita": 10284,
      "ug": 10285,
      "Ġte": 10286,
      "nd": 10287,
      "Ġmon": 10288,
      "ĠThe": 10289,
      "Ġuna": 10290,
      "Qu": 10291,
      "ement": 10292,
      "ial": 10293,
      "ide": 10294,
      "na": 10295,
      "ativ": 10296,
      "ell": 10297,
      "eg": 10298,
      "Ġvous": 10299,
      "Ġag": 10300,
      "ĠCom": 10301,
      "ulo": 10302,
      "ata": 10303,
      "pa": 10304,
      "idad": 10305,
      "AR": 10306,
      "rib": 10307,
      "Ġpres": 10308,
      "vol": 10309,
      "all": 10310,
      "ima": 10311,
      "ée": 10312,
      "Ġi": 10313,
      "Ġesc": 10314,
      "nt": 10315,
      "ific": 10316,
      "ome": 10317,
      "ces": 10318,
      "ast": 10319,
      "eira": 10320,
      "ário": 10321,
      "ub": 10322,
      "tem": 10323,
      "ions": 10324,
      "Ġpass": 10325,
      "icas": 10326,
      "Ġfil": 10327,
      "Ġdé": 10328,
      "ient": 10329,
      "Ġquel": 10330,
      "ĠAl": 10331,
      "Ġvo": 10332,
      "Ġmas": 10333,
      "ale": 10334,
      "Ġdire": 10335,
      "ES": 10336,
      "ime": 10337,
      "ble": 10338,
      "ĠUn": 10339,
      "Ġpelo": 10340,
      "esta": 10341,
      "Ġsobre": 10342,
      "ione": 10343,
      "cer": 10344,
      "Ġfin": 10345,
      "eiro": 10346,
      "qui": 10347,
      "je": 10348,
      "ile": 10349,
      "op": 10350,
      "ambém": 10351,
      "ĠCh": 10352,
      "Ġcl": 10353,
      "od": 10354,
      "ón": 10355,
      "ven": 10356,
      "tes": 10357,
      "ana": 10358,
      "Ġsol": 10359,
      "icos": 10360,
      "ond": 10361,
      "ette": 10362,
      "Ġri": 10363,
      "min": 10364,
      "aliz": 10365,
      "Ġlui": 10366,
      "si": 10367,
      "ity": 10368,
      "ĠEs": 10369,
      "ço": 10370,
      "entos": 10371,
      "pro": 10372,
      "Ġpela": 10373,
      "Ġby": 10374,
      "Ġdon": 10375,
      "Ġposs": 10376,
      "ER": 10377,
      "ava": 10378,
      "orn": 10379,
      "ĠDe": 10380,
      "idos": 10381,
      "Ġvol": 10382,
      "rios": 10383,
      "ht": 10384,
      "her": 10385,
      "Ġcer": 10386,
      "ivers": 10387,
      "ĠMar": 10388,
      "ke": 10389,
      "Ġlos": 10390,
      "ies": 10391,
      "ted": 10392,
      "az": 10393,
      "man": 10394,
      "AB": 10395,
      "ja": 10396,
      "cor": 10397,
      "__": 10398,
      "son": 10399,
      "cio": 10400,
      "ive": 10401,
      "ich": 10402,
      "Ġera": 10403,
      "mes": 10404,
      "bal": 10405,
      "ence": 10406,
      "itu": 10407,
      "SP": 10408,
      "gun": 10409,
      "Ġcap": 10410,
      "ér": 10411,
      "Ġind": 10412,
      "Ġproc": 10413,
      "EN": 10414,
      "ase": 10415,
      "Ġess": 10416,
      "Ġint": 10417,
      "Ġtambém": 10418,
      "ille": 10419,
      "ía": 10420,
      "Ġro": 10421,
      "present": 10422,
      "ít": 10423,
      "ĠĠĠĠĠĠĠĠĠĠĠĠĠĠĠĠ": 10424,
      "Ġtu": 10425,
      "por": 10426,
      "Ġcam": 10427,
      "eral": 10428,
      "Ġá": 10429,
      "Ġsão": 10430,
      "ect": 10431,
      "cont": 10432,
      "tra": 10433,
      "par": 10434,
      "imo": 10435,
      "cis": 10436,
      "AN": 10437,
      "ance": 10438,
      "pt": 10439,
      "be": 10440,
      "ave": 10441,
      "Ġmin": 10442,
      "Ġfe": 10443,
      "ior": 10444,
      "ivo": 10445,
      "Ġrec": 10446,
      "ela": 10447,
      "ĠPro": 10448,
      "Ġcr": 10449,
      "Ġart": 10450,
      "Ġcome": 10451,
      "Ġare": 10452,
      "ld": 10453,
      "ong": 10454,
      "tr": 10455,
      "rasil": 10456,
      "rans": 10457,
      "ère": 10458,
      "ĠNo": 10459,
      "ĠDE": 10460,
      "Ġall": 10461,
      "une": 10462,
      "ios": 10463,
      "Ġnot": 10464,
      "des": 10465,
      "ps": 10466,
      "Ġfrom": 10467,
      "ame": 10468,
      "Ġhom": 10469,
      "Ġfun": 10470,
      "Ġè": 10471,
      "ĠEst": 10472,
      "Ġsent": 10473,
      "Ġpol": 10474,
      "TO": 10475,
      "Ġca": 10476,
      "ore": 10477,
      "---": 10478,
      "ós": 10479,
      "ador": 10480,
      "Ġprin": 10481,
      "Ġpa": 10482,
      "Ġprim": 10483,
      "ocê": 10484,
      "idades": 10485,
      "Ġtout": 10486,
      "ele": 10487,
      "cial": 10488,
      "Ġcan": 10489,
      "Ġfaz": 10490,
      "Ġpla": 10491,
      "form": 10492,
      "ular": 10493,
      "tait": 10494,
      "ĠAs": 10495,
      "este": 10496,
      "ás": 10497,
      "cip": 10498,
      "emb": 10499,
      "ise": 10500,
      "Ġyou": 10501,
      "Ġgo": 10502,
      "zo": 10503,
      "ân": 10504,
      "OAB": 10505,
      "antes": 10506,
      "ĠRe": 10507,
      "erv": 10508,
      "ĠIl": 10509,
      "Ġlas": 10510,
      "Ġelle": 10511,
      "Ġform": 10512,
      "age": 10513,
      "Ġcu": 10514,
      "Ġnous": 10515,
      "ĠLe": 10516,
      "aria": 10517,
      "itos": 10518,
      "Ġmat": 10519,
      "RA": 10520,
      "ang": 10521,
      "éc": 10522,
      "Ġparte": 10523,
      "Ġcou": 10524,
      "Ġgu": 10525,
      "Ġestá": 10526,
      "mos": 10527,
      "vent": 10528,
      "Ġval": 10529,
      "iva": 10530,
      "amos": 10531,
      "ĠPa": 10532,
      "ĠY": 10533,
      "Ġgra": 10534,
      "ose": 10535,
      "ene": 10536,
      "ni": 10537,
      "éd": 10538,
      "Ġquest": 10539,
      "Ġprof": 10540,
      "Ġmen": 10541,
      "Ġvis": 10542,
      "igo": 10543,
      "ors": 10544,
      "one": 10545,
      "ian": 10546,
      "ias": 10547,
      "ĠEn": 10548,
      "able": 10549,
      "lia": 10550,
      "olog": 10551,
      "ix": 10552,
      "cc": 10553,
      "iro": 10554,
      "Ġsegu": 10555,
      "Ġnas": 10556,
      "Ġtro": 10557,
      "Ġpra": 10558,
      "rou": 10559,
      "fin": 10560,
      "uto": 10561,
      "ís": 10562,
      "Ġdia": 10563,
      "Ġquando": 10564,
      "aire": 10565,
      "ĠSe": 10566,
      "rig": 10567,
      "iste": 10568,
      "Ġbien": 10569,
      "Ġsub": 10570,
      "cion": 10571,
      "Ġdella": 10572,
      "Ġeu": 10573,
      "use": 10574,
      "AL": 10575,
      "Ġavec": 10576,
      "IN": 10577,
      "ível": 10578,
      "vid": 10579,
      "isso": 10580,
      "inda": 10581,
      "ON": 10582,
      "té": 10583,
      "ono": 10584,
      "elo": 10585,
      "ĠQu": 10586,
      "Ġk": 10587,
      "Ġsal": 10588,
      "ĠAr": 10589,
      "tern": 10590,
      "Ġinst": 10591,
      "Ġré": 10592,
      "ex": 10593,
      "elh": 10594,
      "Ġcontra": 10595,
      "cre": 10596,
      "Ġmi": 10597,
      "Ġconst": 10598,
      "mer": 10599,
      "OS": 10600,
      "Ġvocê": 10601,
      "ações": 10602,
      "Ġtrans": 10603,
      "dit": 10604,
      "atura": 10605,
      "Ġses": 10606,
      "Ġmuito": 10607,
      "Ġconf": 10608,
      "ok": 10609,
      "Ġhab": 10610,
      "Ġmil": 10611,
      "Ġmed": 10612,
      "ição": 10613,
      "pon": 10614,
      "quer": 10615,
      "Ġmai": 10616,
      "wn": 10617,
      "Ġven": 10618,
      "Ġvez": 10619,
      "iliz": 10620,
      "gan": 10621,
      "ĠEm": 10622,
      "Ġtrabal": 10623,
      "das": 10624,
      "Ġtut": 10625,
      "ical": 10626,
      "fe": 10627,
      "ced": 10628,
      "Ġpos": 10629,
      "Ġhis": 10630,
      "ĠLa": 10631,
      "ários": 10632,
      "ês": 10633,
      "ip": 10634,
      "jo": 10635,
      "úbl": 10636,
      "Ġins": 10637,
      "Ġpesso": 10638,
      "ĠCon": 10639,
      "Ġten": 10640,
      "oria": 10641,
      "Ġjá": 10642,
      "Ġaté": 10643,
      "osa": 10644,
      "ph": 10645,
      "ella": 10646,
      "anç": 10647,
      "ín": 10648,
      "cias": 10649,
      "\t\t\t\t": 10650,
      "para": 10651,
      "Ġdev": 10652,
      "Ġfal": 10653,
      "Ġvi": 10654,
      "vait": 10655,
      "ys": 10656,
      "Ġmun": 10657,
      "Ġcomme": 10658,
      "Ġloc": 10659,
      "Ġfora": 10660,
      "ena": 10661,
      "Ġdist": 10662,
      "én": 10663,
      "Ġanos": 10664,
      "inha": 10665,
      "onte": 10666,
      "rar": 10667,
      "dem": 10668,
      "át": 10669,
      "oro": 10670,
      "indo": 10671,
      "Ġpode": 10672,
      "icial": 10673,
      "Ġaf": 10674,
      "ider": 10675,
      "ork": 10676,
      "ga": 10677,
      "col": 10678,
      "ques": 10679,
      "ôn": 10680,
      "mi": 10681,
      "Ġmal": 10682,
      "Ġha": 10683,
      "ten": 10684,
      "ès": 10685,
      "jet": 10686,
      "Ġfu": 10687,
      "ĠBrasil": 10688,
      "RE": 10689,
      "Ġrel": 10690,
      "ĠTh": 10691,
      "Ġer": 10692,
      "Ġsim": 10693,
      "Ġwe": 10694,
      "ind": 10695,
      "ité": 10696,
      "ours": 10697,
      "Ġsou": 10698,
      "tro": 10699,
      "orte": 10700,
      "bo": 10701,
      "Ġcette": 10702,
      "Ġprodu": 10703,
      "ric": 10704,
      "ram": 10705,
      "The": 10706,
      "ĠAn": 10707,
      "ck": 10708,
      "Ġinf": 10709,
      "aix": 10710,
      "Ġthis": 10711,
      "ese": 10712,
      "ĠSão": 10713,
      "aram": 10714,
      "DO": 10715,
      "Ġsc": 10716,
      "tu": 10717,
      "Ġsp": 10718,
      "vis": 10719,
      "Ġci": 10720,
      "hos": 10721,
      "ari": 10722,
      "ismo": 10723,
      "tal": 10724,
      "ple": 10725,
      "cesso": 10726,
      "Ġtempo": 10727,
      "Ġho": 10728,
      "Ġmesmo": 10729,
      "Ġcre": 10730,
      "Ġincl": 10731,
      "Ġesp": 10732,
      "Ġgli": 10733,
      "rie": 10734,
      "Ġprincip": 10735,
      "gli": 10736,
      "idas": 10737,
      "Ġdem": 10738,
      "Ġve": 10739,
      "In": 10740,
      "Ġeste": 10741,
      "ba": 10742,
      "ĠSt": 10743,
      "enas": 10744,
      "Ġdiv": 10745,
      "Ġfam": 10746,
      "Ġespec": 10747,
      "ois": 10748,
      "Ġti": 10749,
      "Ġseus": 10750,
      "ême": 10751,
      "ations": 10752,
      "Ġú": 10753,
      "Ġgrande": 10754,
      "anta": 10755,
      "Ġhave": 10756,
      "RI": 10757,
      "Ġfac": 10758,
      "itar": 10759,
      "tos": 10760,
      "iment": 10761,
      "EL": 10762,
      "AS": 10763,
      "II": 10764,
      "iam": 10765,
      "Ġaos": 10766,
      "ória": 10767,
      "Ġhas": 10768,
      "Ġpou": 10769,
      "Ġpens": 10770,
      "Ġpiù": 10771,
      "Ġtodos": 10772,
      "ción": 10773,
      "Ġdit": 10774,
      "Ġrece": 10775,
      "acional": 10776,
      "ĠMa": 10777,
      "agem": 10778,
      "ati": 10779,
      "rante": 10780,
      "blic": 10781,
      "lio": 10782,
      "let": 10783,
      "cho": 10784,
      "Ġbem": 10785,
      "Ġforma": 10786,
      "CI": 10787,
      "ry": 10788,
      "pu": 10789,
      "car": 10790,
      "Ġmet": 10791,
      "Ġainda": 10792,
      "orm": 10793,
      "aut": 10794,
      "eno": 10795,
      "Ġop": 10796,
      "ĠCar": 10797,
      "omo": 10798,
      "quis": 10799,
      "istas": 10800,
      "ital": 10801,
      "aient": 10802,
      "Ġcri": 10803,
      "gi": 10804,
      "ĠX": 10805,
      "Ġfat": 10806,
      "ear": 10807,
      "Ġnec": 10808,
      "pend": 10809,
      "ner": 10810,
      "Ġperson": 10811,
      "Ġsign": 10812,
      "Ġliv": 10813,
      "ated": 10814,
      "rias": 10815,
      "Ġaux": 10816,
      "adores": 10817,
      "Ġrela": 10818,
      "Ġces": 10819,
      "ert": 10820,
      "ini": 10821,
      "uro": 10822,
      "ola": 10823,
      "gh": 10824,
      "Ġpró": 10825,
      "RO": 10826,
      "essa": 10827,
      "ob": 10828,
      "cul": 10829,
      "tor": 10830,
      "Ġed": 10831,
      "Ġforam": 10832,
      "Ġmom": 10833,
      "ight": 10834,
      "ĠPar": 10835,
      "Ġrealiz": 10836,
      "uma": 10837,
      "hec": 10838,
      "Ġcal": 10839,
      "ór": 10840,
      "pan": 10841,
      "Ġgen": 10842,
      "unto": 10843,
      "Ġir": 10844,
      "Ġleg": 10845,
      "icip": 10846,
      "Ġsom": 10847,
      "Ġdest": 10848,
      "ĠEx": 10849,
      "ré": 10850,
      "enza": 10851,
      "Ġcomm": 10852,
      "ze": 10853,
      "Ġapresent": 10854,
      "ident": 10855,
      "Ġfait": 10856,
      "Ġmer": 10857,
      "enh": 10858,
      "chi": 10859,
      "vers": 10860,
      "Ġli": 10861,
      "ua": 10862,
      "ária": 10863,
      "Ġut": 10864,
      "ilidade": 10865,
      "Ġhist": 10866,
      "IS": 10867,
      "ris": 10868,
      "Pro": 10869,
      "Ġta": 10870,
      "Ġher": 10871,
      "Ġpoder": 10872,
      "Ġsab": 10873,
      "Ġinv": 10874,
      "Ġimport": 10875,
      "ogo": 10876,
      "Ġlib": 10877,
      "veis": 10878,
      "Ġgi": 10879,
      "Ġtou": 10880,
      "ĠEl": 10881,
      "erra": 10882,
      "Ġpes": 10883,
      "ét": 10884,
      "ĠJe": 10885,
      "iros": 10886,
      "duc": 10887,
      "ĠFran": 10888,
      "cou": 10889,
      "Ġmost": 10890,
      "Ġcent": 10891,
      "almente": 10892,
      "ĠPaulo": 10893,
      "Ġleur": 10894,
      "har": 10895,
      "être": 10896,
      "Ġonde": 10897,
      "Ġbo": 10898,
      "Ġnoss": 10899,
      "quel": 10900,
      "Ġisso": 10901,
      "Ġsin": 10902,
      "ts": 10903,
      "bra": 10904,
      "Em": 10905,
      "ĠNe": 10906,
      "volv": 10907,
      "Ġdal": 10908,
      "ction": 10909,
      "Ġwhich": 10910,
      "Ġserv": 10911,
      "Ġsus": 10912,
      "Ġvida": 10913,
      "Ġnecess": 10914,
      "Ġsans": 10915,
      "Ġencont": 10916,
      "ece": 10917,
      "Ġsempre": 10918,
      "Ġbut": 10919,
      "Ġave": 10920,
      "press": 10921,
      "Ġmelh": 10922,
      "ane": 10923,
      "Ġalla": 10924,
      "uc": 10925,
      "ain": 10926,
      "TI": 10927,
      "riv": 10928,
      "Ġfra": 10929,
      "ther": 10930,
      "Ġris": 10931,
      "Ġàs": 10932,
      "OR": 10933,
      "____": 10934,
      "TA": 10935,
      "Ġsó": 10936,
      "ução": 10937,
      "ĠPr": 10938,
      "ĠQ": 10939,
      "Ġvers": 10940,
      "ret": 10941,
      "Ġcontin": 10942,
      "Ġpal": 10943,
      "Ġtal": 10944,
      "mas": 10945,
      "Ġela": 10946,
      "Ġpop": 10947,
      "Ġnov": 10948,
      "Ġsuper": 10949,
      "Ġpare": 10950,
      "ili": 10951,
      "ish": 10952,
      "Ġavait": 10953,
      "has": 10954,
      "Ġprov": 10955,
      "ach": 10956,
      "emp": 10957,
      "ater": 10958,
      "Ġfl": 10959,
      "leg": 10960,
      "gl": 10961,
      "Ġbu": 10962,
      "pet": 10963,
      "iais": 10964,
      "Ġtre": 10965,
      "ião": 10966,
      "ál": 10967,
      "Ġmod": 10968,
      "ità": 10969,
      "No": 10970,
      "cent": 10971,
      "Es": 10972,
      "Ġfic": 10973,
      "ary": 10974,
      "Ġbr": 10975,
      "ori": 10976,
      "Ġsont": 10977,
      "zione": 10978,
      "ização": 10979,
      "Ġmot": 10980,
      "Ġsegun": 10981,
      "Ġrest": 10982,
      "Ġlev": 10983,
      "Ġano": 10984,
      "ature": 10985,
      "TE": 10986,
      "ées": 10987,
      "asse": 10988,
      "Ġwere": 10989,
      "pois": 10990,
      "ger": 10991,
      "ença": 10992,
      "IL": 10993,
      "ĠZ": 10994,
      "iu": 10995,
      "Ġban": 10996,
      "Ġalg": 10997,
      "uss": 10998,
      "val": 10999,
      "ências": 11000,
      "Ġbl": 11001,
      "Ġpoint": 11002,
      "Ġsuas": 11003,
      "ieu": 11004,
      "ĠOs": 11005,
      "ique": 11006,
      "Ġvie": 11007,
      "Ġimp": 11008,
      "Ġcada": 11009,
      "Ġsh": 11010,
      "enda": 11011,
      "ws": 11012,
      "Al": 11013,
      "pp": 11014,
      "ĠJo": 11015,
      "ĠPor": 11016,
      "De": 11017,
      "ral": 11018,
      "ĠĠĠĠĠĠĠĠĠĠĠĠ": 11019,
      "ável": 11020,
      "endre": 11021,
      "Ġtheir": 11022,
      "Ġprop": 11023,
      "Ġdom": 11024,
      "Ġconse": 11025,
      "Ġdias": 11026,
      "br": 11027,
      "its": 11028,
      "Ġpet": 11029,
      "Ġacc": 11030,
      "met": 11031,
      "ern": 11032,
      "Ġfazer": 11033,
      "Il": 11034,
      "lic": 11035,
      "ack": 11036,
      "Ġtrou": 11037,
      "dade": 11038,
      "As": 11039,
      "olo": 11040,
      "EI": 11041,
      "gio": 11042,
      "ĠAd": 11043,
      "Ġfut": 11044,
      "Ġhum": 11045,
      "inho": 11046,
      "rent": 11047,
      "ument": 11048,
      "Ġoutros": 11049,
      "Ġcos": 11050,
      "Ġmol": 11051,
      "oso": 11052,
      "ório": 11053,
      "ĠHe": 11054,
      "Ġpat": 11055,
      "ense": 11056,
      "tion": 11057,
      "ché": 11058,
      "rav": 11059,
      "arg": 11060,
      "Ġret": 11061,
      "ício": 11062,
      "Ġdesen": 11063,
      "DA": 11064,
      "Ġwill": 11065,
      "ares": 11066,
      "Ġnel": 11067,
      "ender": 11068,
      "Ġcaso": 11069,
      "una": 11070,
      "inal": 11071,
      "ĠAm": 11072,
      "Ġorgan": 11073,
      "ĠSo": 11074,
      "core": 11075,
      "Ġhad": 11076,
      "Ġsé": 11077,
      "ivos": 11078,
      "Ġcasa": 11079,
      "Ġpessoas": 11080,
      "aba": 11081,
      "Ġcham": 11082,
      "fic": 11083,
      "ultura": 11084,
      "Ġtodo": 11085,
      "dic": 11086,
      "Ġdifer": 11087,
      "Ġaff": 11088,
      "Ġempres": 11089,
      "Ġutiliz": 11090,
      "urso": 11091,
      "su": 11092,
      "Ġnom": 11093,
      "ures": 11094,
      "ede": 11095,
      "sa": 11096,
      "ound": 11097,
      "êm": 11098,
      "Ġnome": 11099,
      "Ġdec": 11100,
      "Ġoc": 11101,
      "Ġils": 11102,
      "Ġvia": 11103,
      "cher": 11104,
      "Ġai": 11105,
      "uí": 11106,
      "Ġpag": 11107,
      "Ġup": 11108,
      "ould": 11109,
      "ron": 11110,
      "imentos": 11111,
      "rea": 11112,
      "und": 11113,
      "Ġcab": 11114,
      "forma": 11115,
      "ĠGu": 11116,
      "itas": 11117,
      "oir": 11118,
      "Ġdou": 11119,
      "Ġfir": 11120,
      "Ġfar": 11121,
      "Ġcaus": 11122,
      "ÃO": 11123,
      "Ġétait": 11124,
      "plic": 11125,
      "Ġsendo": 11126,
      "ância": 11127,
      "gue": 11128,
      "Ġamb": 11129,
      "Ġthey": 11130,
      "Ġref": 11131,
      "we": 11132,
      "ĠCo": 11133,
      "Ġio": 11134,
      "iver": 11135,
      "Ġtanto": 11136,
      "ços": 11137,
      "ende": 11138,
      "gr": 11139,
      "Ġgover": 11140,
      "Ġtom": 11141,
      "Ġconsider": 11142,
      "Ġnum": 11143,
      "gua": 11144,
      "Ġbon": 11145,
      "La": 11146,
      "tt": 11147,
      "Ġdisc": 11148,
      "idente": 11149,
      "ink": 11150,
      "Ġresult": 11151,
      "Ġfaire": 11152,
      "ament": 11153,
      "Ġnu": 11154,
      "IC": 11155,
      "pect": 11156,
      "Ġni": 11157,
      "Le": 11158,
      "Ġone": 11159,
      "Ġdeux": 11160,
      "Ġdesc": 11161,
      "ĠCol": 11162,
      "Ġtous": 11163,
      "Ġobs": 11164,
      "Ġapenas": 11165,
      "Ġdois": 11166,
      "Ġyour": 11167,
      "Ġwho": 11168,
      "ĠCl": 11169,
      "entro": 11170,
      "ĠÉ": 11171,
      "mit": 11172,
      "uta": 11173,
      "ativa": 11174,
      "red": 11175,
      "ible": 11176,
      "emos": 11177,
      "Ġprod": 11178,
      "Ġeff": 11179,
      "Ġcara": 11180,
      "Ġesta": 11181,
      "Ġhá": 11182,
      "Ġwork": 11183,
      "Ġexp": 11184,
      "att": 11185,
      "Ġtrabalho": 11186,
      "gar": 11187,
      "Ġfem": 11188,
      "Ġped": 11189,
      "ĠPara": 11190,
      "Re": 11191,
      "oco": 11192,
      "Ġvou": 11193,
      "Ġpublic": 11194,
      "Com": 11195,
      "lt": 11196,
      "ĠUnivers": 11197,
      "Ġoù": 11198,
      "Ġlet": 11199,
      "Ġvalor": 11200,
      "Ġalso": 11201,
      "Ġorig": 11202,
      "Ġconta": 11203,
      "Ġporque": 11204,
      "rado": 11205,
      "lu": 11206,
      "los": 11207,
      "rer": 11208,
      "ioni": 11209,
      "pes": 11210,
      "Ġassim": 11211,
      "ĠPer": 11212,
      "DV": 11213,
      "Ġfer": 11214,
      "rut": 11215,
      "Ġpúbl": 11216,
      "Ġev": 11217,
      "óg": 11218,
      "Ġder": 11219,
      "Ġlu": 11220,
      "íp": 11221,
      "Ġcin": 11222,
      "Ġtorn": 11223,
      "lex": 11224,
      "Ġprecis": 11225,
      "Ġsul": 11226,
      "Ġmul": 11227,
      "anos": 11228,
      "Ġsono": 11229,
      "erg": 11230,
      "ĠEle": 11231,
      "ww": 11232,
      "onn": 11233,
      "ath": 11234,
      "istema": 11235,
      "Ġcomun": 11236,
      "ĠAss": 11237,
      "Ġbar": 11238,
      "UL": 11239,
      "Ġresp": 11240,
      "Ġexec": 11241,
      "Ġmundo": 11242,
      "Ġdiff": 11243,
      "cel": 11244,
      "ula": 11245,
      "ils": 11246,
      "Ġquer": 11247,
      "ĠIs": 11248,
      "Ġmis": 11249,
      "rir": 11250,
      "Ġmême": 11251,
      "itt": 11252,
      "ças": 11253,
      "Ġfinal": 11254,
      "ussi": 11255,
      "Ġgru": 11256,
      "Ġdef": 11257,
      "Ġconhec": 11258,
      "low": 11259,
      "Ġfig": 11260,
      "Ġaj": 11261,
      "cos": 11262,
      "ĠCam": 11263,
      "tas": 11264,
      "part": 11265,
      "Ġdelle": 11266,
      "Ġexper": 11267,
      "mar": 11268,
      "ologia": 11269,
      "En": 11270,
      "Ġprogra": 11271,
      "Se": 11272,
      "Ġdivers": 11273,
      "Ġdurante": 11274,
      "ree": 11275,
      "Ġpodem": 11276,
      "Ġol": 11277,
      "Ġapr": 11278,
      "tar": 11279,
      "ick": 11280,
      "Ġoff": 11281,
      "ov": 11282,
      "Ġbene": 11283,
      "oit": 11284,
      "Ġdisse": 11285,
      "Ġbas": 11286,
      "Ġhav": 11287,
      "pi": 11288,
      "Ġpaís": 11289,
      "ĠIt": 11290,
      "Ġinform": 11291,
      "ory": 11292,
      "Ġinc": 11293,
      "Ġmore": 11294,
      "Ġmag": 11295,
      "minist": 11296,
      "Ġét": 11297,
      "reg": 11298,
      "inte": 11299,
      "ute": 11300,
      "embro": 11301,
      "DE": 11302,
      "bol": 11303,
      "Ġjun": 11304,
      "Ġmaior": 11305,
      "Ġdont": 11306,
      "ings": 11307,
      "ĠRo": 11308,
      "edi": 11309,
      "encia": 11310,
      "Ġseja": 11311,
      "ĠSa": 11312,
      "Ġlim": 11313,
[...]
